{
  "version": "1.0",
  "truncation": null,
  "padding": null,
  "added_tokens": [
    {
      "id": 0,
      "content": "[SOS]",
      "single_word": false,
      "lstrip": false,
      "rstrip": false,
      "normalized": false,
      "special": true
    },
    {
      "id": 1,
      "content": "[EOS]",
      "single_word": false,
      "lstrip": false,
      "rstrip": false,
      "normalized": false,
      "special": true
    },
    {
      "id": 2,
      "content": "[UNK]",
      "single_word": false,
      "lstrip": false,
      "rstrip": false,
      "normalized": false,
      "special": true
    },
    {
      "id": 3,
      "content": "[PAD]",
      "single_word": false,
      "lstrip": false,
      "rstrip": false,
      "normalized": false,
      "special": true
    }
  ],
  "normalizer": {
    "type": "Sequence",
    "normalizers": [
      {
        "type": "Replace",
        "pattern": {
          "Regex": "\t"
        },
        "content": " "
      },
      {
        "type": "Replace",
        "pattern": {
          "Regex": " {2,}"
        },
        "content": " "
      },
      {
        "type": "BertNormalizer",
        "clean_text": true,
        "handle_chinese_chars": true,
        "strip_accents": false,
        "lowercase": false
      }
    ]
  },
  "pre_tokenizer": {
    "type": "Whitespace"
  },
  "post_processor": {
    "type": "TemplateProcessing",
    "single": [
      {
        "SpecialToken": {
          "id": "[SOS]",
          "type_id": 0
        }
      },
      {
        "Sequence": {
          "id": "A",
          "type_id": 0
        }
      },
      {
        "SpecialToken": {
          "id": "[EOS]",
          "type_id": 0
        }
      }
    ],
    "pair": [
      {
        "Sequence": {
          "id": "A",
          "type_id": 0
        }
      },
      {
        "Sequence": {
          "id": "B",
          "type_id": 1
        }
      }
    ],
    "special_tokens": {
      "[EOS]": {
        "id": "[EOS]",
        "ids": [
          1
        ],
        "tokens": [
          "[EOS]"
        ]
      },
      "[SOS]": {
        "id": "[SOS]",
        "ids": [
          0
        ],
        "tokens": [
          "[SOS]"
        ]
      }
    }
  },
  "decoder": {
    "type": "WordPiece",
    "prefix": "##",
    "cleanup": true
  },
  "model": {
    "type": "BPE",
    "dropout": null,
    "unk_token": "[UNK]",
    "continuing_subword_prefix": "##",
    "end_of_word_suffix": null,
    "fuse_unk": false,
    "vocab": {
      "[SOS]": 0,
      "[EOS]": 1,
      "[UNK]": 2,
      "[PAD]": 3,
      "!": 4,
      "\"": 5,
      "#": 6,
      "$": 7,
      "%": 8,
      "&": 9,
      "'": 10,
      "(": 11,
      ")": 12,
      "*": 13,
      "+": 14,
      ",": 15,
      "-": 16,
      ".": 17,
      "/": 18,
      "0": 19,
      "1": 20,
      "2": 21,
      "3": 22,
      "4": 23,
      "5": 24,
      "6": 25,
      "7": 26,
      "8": 27,
      "9": 28,
      ":": 29,
      ";": 30,
      "=": 31,
      "?": 32,
      "A": 33,
      "B": 34,
      "C": 35,
      "D": 36,
      "E": 37,
      "F": 38,
      "G": 39,
      "H": 40,
      "I": 41,
      "J": 42,
      "K": 43,
      "L": 44,
      "M": 45,
      "N": 46,
      "O": 47,
      "P": 48,
      "Q": 49,
      "R": 50,
      "S": 51,
      "T": 52,
      "U": 53,
      "V": 54,
      "W": 55,
      "X": 56,
      "Y": 57,
      "Z": 58,
      "[": 59,
      "\\": 60,
      "]": 61,
      "^": 62,
      "_": 63,
      "`": 64,
      "a": 65,
      "b": 66,
      "c": 67,
      "d": 68,
      "e": 69,
      "f": 70,
      "g": 71,
      "h": 72,
      "i": 73,
      "j": 74,
      "k": 75,
      "l": 76,
      "m": 77,
      "n": 78,
      "o": 79,
      "p": 80,
      "q": 81,
      "r": 82,
      "s": 83,
      "t": 84,
      "u": 85,
      "v": 86,
      "w": 87,
      "x": 88,
      "y": 89,
      "z": 90,
      "{": 91,
      "}": 92,
      "~": 93,
      "¡": 94,
      "¢": 95,
      "£": 96,
      "§": 97,
      "¨": 98,
      "©": 99,
      "«": 100,
      "°": 101,
      "²": 102,
      "³": 103,
      "´": 104,
      "¶": 105,
      "·": 106,
      "º": 107,
      "»": 108,
      "¼": 109,
      "½": 110,
      "À": 111,
      "Á": 112,
      "Â": 113,
      "Ã": 114,
      "Å": 115,
      "Ç": 116,
      "È": 117,
      "É": 118,
      "Ê": 119,
      "Ë": 120,
      "Í": 121,
      "Î": 122,
      "Ï": 123,
      "Ô": 124,
      "Õ": 125,
      "Ö": 126,
      "Ø": 127,
      "Ù": 128,
      "Ü": 129,
      "ß": 130,
      "à": 131,
      "á": 132,
      "â": 133,
      "ã": 134,
      "ä": 135,
      "æ": 136,
      "ç": 137,
      "è": 138,
      "é": 139,
      "ê": 140,
      "ë": 141,
      "ì": 142,
      "í": 143,
      "î": 144,
      "ï": 145,
      "ð": 146,
      "ñ": 147,
      "ò": 148,
      "ó": 149,
      "ô": 150,
      "õ": 151,
      "ö": 152,
      "ø": 153,
      "ù": 154,
      "ú": 155,
      "û": 156,
      "ü": 157,
      "þ": 158,
      "ă": 159,
      "ć": 160,
      "Č": 161,
      "č": 162,
      "ď": 163,
      "ė": 164,
      "ę": 165,
      "ğ": 166,
      "ł": 167,
      "ń": 168,
      "Ő": 169,
      "ő": 170,
      "Œ": 171,
      "œ": 172,
      "ř": 173,
      "ś": 174,
      "ş": 175,
      "Š": 176,
      "š": 177,
      "Ţ": 178,
      "ţ": 179,
      "ū": 180,
      "ž": 181,
      "ʼ": 182,
      "Ε": 183,
      "Τ": 184,
      "Ј": 185,
      "А": 186,
      "В": 187,
      "Д": 188,
      "Н": 189,
      "С": 190,
      "б": 191,
      "д": 192,
      "е": 193,
      "и": 194,
      "й": 195,
      "л": 196,
      "о": 197,
      "р": 198,
      "с": 199,
      "у": 200,
      "ш": 201,
      "Ҫ": 202,
      "–": 203,
      "—": 204,
      "―": 205,
      "‘": 206,
      "’": 207,
      "“": 208,
      "”": 209,
      "†": 210,
      "•": 211,
      "…": 212,
      "€": 213,
      "™": 214,
      "─": 215,
      "♥": 216,
      "♪": 217,
      "♫": 218,
      "ﬂ": 219,
      "##s": 220,
      "##a": 221,
      "##i": 222,
      "##n": 223,
      "##e": 224,
      "##m": 225,
      "##t": 226,
      "##o": 227,
      "##w": 228,
      "##r": 229,
      "##g": 230,
      "##h": 231,
      "##u": 232,
      "##d": 233,
      "##c": 234,
      "##k": 235,
      "##é": 236,
      "##9": 237,
      "##8": 238,
      "##p": 239,
      "##b": 240,
      "##l": 241,
      "##j": 242,
      "##y": 243,
      "##5": 244,
      "##2": 245,
      "##0": 246,
      "##I": 247,
      "##v": 248,
      "##1": 249,
      "##6": 250,
      "##z": 251,
      "##f": 252,
      "##q": 253,
      "##â": 254,
      "##L": 255,
      "##C": 256,
      "##x": 257,
      "##è": 258,
      "##ñ": 259,
      "##N": 260,
      "##D": 261,
      "##G": 262,
      "##È": 263,
      "##E": 264,
      "##H": 265,
      "##A": 266,
      "##R": 267,
      "##T": 268,
      "##ç": 269,
      "##O": 270,
      "##P": 271,
      "##Y": 272,
      "##U": 273,
      "##W": 274,
      "##3": 275,
      "##S": 276,
      "##ş": 277,
      "##ó": 278,
      "##ô": 279,
      "##ï": 280,
      "##á": 281,
      "##ê": 282,
      "##J": 283,
      "##7": 284,
      "##î": 285,
      "##4": 286,
      "##ü": 287,
      "##V": 288,
      "##-": 289,
      "##û": 290,
      "##K": 291,
      "##M": 292,
      "##í": 293,
      "##ì": 294,
      "##B": 295,
      "##,": 296,
      "##с": 297,
      "##X": 298,
      "##É": 299,
      "##Â": 300,
      "##Ê": 301,
      "##õ": 302,
      "##F": 303,
      "##Á": 304,
      "##æ": 305,
      "##Z": 306,
      "##ø": 307,
      "##’": 308,
      "##ä": 309,
      "##ʼ": 310,
      "##Ô": 311,
      "##.": 312,
      "##!": 313,
      "##\"": 314,
      "##Q": 315,
      "##ú": 316,
      "##'": 317,
      "##р": 318,
      "##™": 319,
      "##]": 320,
      "##Ã": 321,
      "##:": 322,
      "##ń": 323,
      "##ď": 324,
      "##ö": 325,
      "##)": 326,
      "##(": 327,
      "##œ": 328,
      "##ë": 329,
      "##}": 330,
      "##š": 331,
      "##»": 332,
      "##º": 333,
      "##*": 334,
      "##_": 335,
      "##à": 336,
      "##?": 337,
      "##Î": 338,
      "##♪": 339,
      "##у": 340,
      "##^": 341,
      "##/": 342,
      "##Ç": 343,
      "##ã": 344,
      "##ł": 345,
      "##;": 346,
      "##–": 347,
      "##ß": 348,
      "##$": 349,
      "##ă": 350,
      "##Ù": 351,
      "##♫": 352,
      "##č": 353,
      "##%": 354,
      "##ţ": 355,
      "##þ": 356,
      "##ū": 357,
      "##ė": 358,
      "##~": 359,
      "##Œ": 360,
      "##ę": 361,
      "##[": 362,
      "##À": 363,
      "##о": 364,
      "##ш": 365,
      "##л": 366,
      "##и": 367,
      "##Í": 368,
      "##ù": 369,
      "##½": 370,
      "##´": 371,
      "##ò": 372,
      "##•": 373,
      "##ﬂ": 374,
      "##…": 375,
      "##ř": 376,
      "##\\": 377,
      "##«": 378,
      "##Ï": 379,
      "##³": 380,
      "##€": 381,
      "##б": 382,
      "##е": 383,
      "###": 384,
      "##ž": 385,
      "##ő": 386,
      "##ć": 387,
      "##ś": 388,
      "##й": 389,
      "##ğ": 390,
      "##ð": 391,
      "##Õ": 392,
      "##¡": 393,
      "##ou": 394,
      "##on": 395,
      "##er": 396,
      "##es": 397,
      "##en": 398,
      "th": 399,
      "##is": 400,
      "##in": 401,
      "##an": 402,
      "##re": 403,
      "##at": 404,
      "##it": 405,
      "the": 406,
      "##or": 407,
      "de": 408,
      "##ll": 409,
      "##ar": 410,
      "##ent": 411,
      "##st": 412,
      "##om": 413,
      "##ion": 414,
      "##as": 415,
      "to": 416,
      "##ur": 417,
      "qu": 418,
      "##le": 419,
      "##ous": 420,
      "##ve": 421,
      "you": 422,
      "##ing": 423,
      "in": 424,
      "##et": 425,
      "##ut": 426,
      "an": 427,
      "la": 428,
      "##te": 429,
      "of": 430,
      "un": 431,
      "le": 432,
      "##ic": 433,
      "##al": 434,
      "##our": 435,
      "##ro": 436,
      "##ir": 437,
      "en": 438,
      "##ot": 439,
      "##se": 440,
      "##ie": 441,
      "##ment": 442,
      "re": 443,
      "est": 444,
      "##ais": 445,
      "##me": 446,
      "be": 447,
      "##ce": 448,
      "que": 449,
      "on": 450,
      "and": 451,
      "##qu": 452,
      "##ra": 453,
      "##he": 454,
      "##id": 455,
      "##ant": 456,
      "pas": 457,
      "ne": 458,
      "me": 459,
      "##ow": 460,
      "##us": 461,
      "that": 462,
      "is": 463,
      "et": 464,
      "##ay": 465,
      "##ill": 466,
      "##ig": 467,
      "##ere": 468,
      "con": 469,
      "##ct": 470,
      "##ation": 471,
      "##il": 472,
      "##ed": 473,
      "vous": 474,
      "it": 475,
      "les": 476,
      "Je": 477,
      "com": 478,
      "for": 479,
      "##op": 480,
      "##ch": 481,
      "fa": 482,
      "ha": 483,
      "##ol": 484,
      "##ire": 485,
      "##ne": 486,
      "wh": 487,
      "se": 488,
      "##ver": 489,
      "des": 490,
      "##ux": 491,
      "par": 492,
      "ce": 493,
      "pr": 494,
      "pro": 495,
      "##pp": 496,
      "##ans": 497,
      "##mp": 498,
      "##end": 499,
      "##ter": 500,
      "##ons": 501,
      "pour": 502,
      "ch": 503,
      "do": 504,
      "su": 505,
      "##lle": 506,
      "je": 507,
      "##and": 508,
      "##out": 509,
      "##ort": 510,
      "##ld": 511,
      "##ain": 512,
      "##ad": 513,
      "##os": 514,
      "pl": 515,
      "##ke": 516,
      "##im": 517,
      "##ien": 518,
      "as": 519,
      "we": 520,
      "une": 521,
      "mo": 522,
      "il": 523,
      "##és": 524,
      "##ag": 525,
      "##ly": 526,
      "##tre": 527,
      "Th": 528,
      "he": 529,
      "not": 530,
      "this": 531,
      "##ci": 532,
      "##ait": 533,
      "##ri": 534,
      "##ht": 535,
      "st": 536,
      "##ble": 537,
      "##ust": 538,
      "##ul": 539,
      "##res": 540,
      "##ith": 541,
      "dé": 542,
      "You": 543,
      "have": 544,
      "##au": 545,
      "##que": 546,
      "Il": 547,
      "##ue": 548,
      "##..": 549,
      "##ont": 550,
      "##ff": 551,
      "The": 552,
      "##ould": 553,
      "...": 554,
      "ex": 555,
      "tr": 556,
      "##iss": 557,
      "du": 558,
      "with": 559,
      "go": 560,
      "li": 561,
      "nous": 562,
      "We": 563,
      "##ers": 564,
      "so": 565,
      "##un": 566,
      "te": 567,
      "##est": 568,
      "pe": 569,
      "ai": 570,
      "##ight": 571,
      "##ure": 572,
      "are": 573,
      "##ac": 574,
      "all": 575,
      "##ess": 576,
      "av": 577,
      "dans": 578,
      "au": 579,
      "at": 580,
      "ét": 581,
      "##am": 582,
      "Wh": 583,
      "##urop": 584,
      "Com": 585,
      "##ard": 586,
      "sa": 587,
      "don": 588,
      "qui": 589,
      "##od": 590,
      "##ive": 591,
      "##pe": 592,
      "my": 593,
      "your": 594,
      "##ée": 595,
      "##ions": 596,
      "##ui": 597,
      "##all": 598,
      "##her": 599,
      "##nd": 600,
      "ve": 601,
      "ave": 602,
      "##ate": 603,
      "##ér": 604,
      "sh": 605,
      "ar": 606,
      "ma": 607,
      "Vous": 608,
      "mon": 609,
      "can": 610,
      "##ère": 611,
      "sur": 612,
      "##oir": 613,
      "al": 614,
      "##bl": 615,
      "ll": 616,
      "tu": 617,
      "plus": 618,
      "ab": 619,
      "was": 620,
      "##iv": 621,
      "am": 622,
      "It": 623,
      "will": 624,
      "##ens": 625,
      "lo": 626,
      "##ist": 627,
      "ré": 628,
      "##ang": 629,
      "ta": 630,
      "part": 631,
      "imp": 632,
      "##si": 633,
      "##ose": 634,
      "##ette": 635,
      "ag": 636,
      "##cc": 637,
      "##if": 638,
      "##ore": 639,
      "som": 640,
      "##mb": 641,
      "##el": 642,
      "fr": 643,
      "kn": 644,
      "ser": 645,
      "app": 646,
      "##ance": 647,
      "Un": 648,
      "##miss": 649,
      "##pr": 650,
      "si": 651,
      "know": 652,
      "##ite": 653,
      "##ong": 654,
      "##hing": 655,
      "##age": 656,
      "##ité": 657,
      "or": 658,
      "Tu": 659,
      "out": 660,
      "Europ": 661,
      "tra": 662,
      "like": 663,
      "##oi": 664,
      "##ès": 665,
      "He": 666,
      "res": 667,
      "##lement": 668,
      "Europe": 669,
      "##de": 670,
      "Le": 671,
      "##ique": 672,
      "moi": 673,
      "être": 674,
      "##ap": 675,
      "##ine": 676,
      "##oy": 677,
      "there": 678,
      "get": 679,
      "##ord": 680,
      "es": 681,
      "him": 682,
      "co": 683,
      "##mission": 684,
      "tout": 685,
      "##ille": 686,
      "man": 687,
      "##ind": 688,
      "what": 689,
      "avec": 690,
      "##oug": 691,
      "##ier": 692,
      "here": 693,
      "aut": 694,
      "##ry": 695,
      "fe": 696,
      "##ink": 697,
      "mar": 698,
      "##ven": 699,
      "up": 700,
      "##able": 701,
      "just": 702,
      "bien": 703,
      "##urs": 704,
      "##ai": 705,
      "dis": 706,
      "but": 707,
      "##ice": 708,
      "fait": 709,
      "##mes": 710,
      "ça": 711,
      "##ies": 712,
      "about": 713,
      "has": 714,
      "see": 715,
      "And": 716,
      "##ois": 717,
      "##ence": 718,
      "On": 719,
      "##ok": 720,
      "any": 721,
      "##ert": 722,
      "Par": 723,
      "La": 724,
      "dev": 725,
      "##ez": 726,
      "mais": 727,
      "would": 728,
      "cont": 729,
      "##ity": 730,
      "pol": 731,
      "cette": 732,
      "##ich": 733,
      "##du": 734,
      "Commission": 735,
      "##oin": 736,
      "suis": 737,
      "int": 738,
      "##ors": 739,
      "##um": 740,
      "gr": 741,
      "##la": 742,
      "Nous": 743,
      "##ays": 744,
      "Et": 745,
      "comp": 746,
      "Mr": 747,
      "##ack": 748,
      "sont": 749,
      "no": 750,
      "##oun": 751,
      "What": 752,
      "wor": 753,
      "been": 754,
      "Oh": 755,
      "ad": 756,
      "##ident": 757,
      "##ction": 758,
      "##ations": 759,
      "##oc": 760,
      "by": 761,
      "##ia": 762,
      "from": 763,
      "dire": 764,
      "##ond": 765,
      "faire": 766,
      "##ted": 767,
      "##ime": 768,
      "##onn": 769,
      "##otre": 770,
      "acc": 771,
      "one": 772,
      "##ud": 773,
      "right": 774,
      "ou": 775,
      "Well": 776,
      "##ame": 777,
      "That": 778,
      "##tes": 779,
      "want": 780,
      "##onne": 781,
      "prop": 782,
      "think": 783,
      "if": 784,
      "ver": 785,
      "comm": 786,
      "must": 787,
      "##ge": 788,
      "##00": 789,
      "##ise": 790,
      "her": 791,
      "##one": 792,
      "got": 793,
      "they": 794,
      "##ide": 795,
      "ra": 796,
      "##ner": 797,
      "##che": 798,
      "elle": 799,
      "di": 800,
      "##art": 801,
      "But": 802,
      "att": 803,
      "##ments": 804,
      "did": 805,
      "##aire": 806,
      "Ch": 807,
      "cons": 808,
      "now": 809,
      "##ouv": 810,
      "hom": 811,
      "us": 812,
      "our": 813,
      "dem": 814,
      "##ab": 815,
      "##are": 816,
      "##ouve": 817,
      "Mais": 818,
      "va": 819,
      "##oup": 820,
      "cr": 821,
      "conc": 822,
      "per": 823,
      "comme": 824,
      "vou": 825,
      "them": 826,
      "##ally": 827,
      "inter": 828,
      "##uropé": 829,
      "##ours": 830,
      "pre": 831,
      "europé": 832,
      "pos": 833,
      "import": 834,
      "tou": 835,
      "##tat": 836,
      "En": 837,
      "should": 838,
      "##ière": 839,
      "lui": 840,
      "##ient": 841,
      "##ep": 842,
      "In": 843,
      "##ques": 844,
      "##ition": 845,
      "##ussi": 846,
      "pu": 847,
      "##der": 848,
      "This": 849,
      "##ase": 850,
      "ont": 851,
      "ever": 852,
      "fin": 853,
      "##ieur": 854,
      "Les": 855,
      "##king": 856,
      "which": 857,
      "##ough": 858,
      "who": 859,
      "##ace": 860,
      "votre": 861,
      "##pport": 862,
      "##ces": 863,
      "European": 864,
      "ici": 865,
      "européen": 866,
      "Ce": 867,
      "avez": 868,
      "very": 869,
      "time": 870,
      "Union": 871,
      "dit": 872,
      "##endre": 873,
      "cro": 874,
      "some": 875,
      "##ême": 876,
      "été": 877,
      "more": 878,
      "rep": 879,
      "##ect": 880,
      "##ern": 881,
      "br": 882,
      "ent": 883,
      "##ées": 884,
      "##ign": 885,
      "##itt": 886,
      "##orm": 887,
      "cl": 888,
      "going": 889,
      "off": 890,
      "son": 891,
      "ces": 892,
      "##ét": 893,
      "##ég": 894,
      "peut": 895,
      "Qu": 896,
      "his": 897,
      "good": 898,
      "reg": 899,
      "take": 900,
      "##ound": 901,
      "##ars": 902,
      "##ount": 903,
      "Pour": 904,
      "exp": 905,
      "say": 906,
      "était": 907,
      "##pt": 908,
      "ter": 909,
      "Que": 910,
      "vo": 911,
      "##ast": 912,
      "##ade": 913,
      "##ther": 914,
      "##mber": 915,
      "Ne": 916,
      "aux": 917,
      "##ese": 918,
      "No": 919,
      "gu": 920,
      "##air": 921,
      "##orte": 922,
      "long": 923,
      "##so": 924,
      "##ult": 925,
      "##éc": 926,
      "she": 927,
      "aussi": 928,
      "##onsieur": 929,
      "eff": 930,
      "##ck": 931,
      "##va": 932,
      "##use": 933,
      "Si": 934,
      "##iez": 935,
      "##reat": 936,
      "quest": 937,
      "##ten": 938,
      "##pect": 939,
      "vie": 940,
      "##ru": 941,
      "##sel": 942,
      "éc": 943,
      "tell": 944,
      "##ick": 945,
      "quel": 946,
      "là": 947,
      "##og": 948,
      "polit": 949,
      "mat": 950,
      "bet": 951,
      "had": 952,
      "need": 953,
      "##vel": 954,
      "##th": 955,
      "pers": 956,
      "ye": 957,
      "##ob": 958,
      "##ution": 959,
      "##ree": 960,
      "come": 961,
      "##oint": 962,
      "could": 963,
      "même": 964,
      "##ish": 965,
      "There": 966,
      "back": 967,
      "aur": 968,
      "act": 969,
      "##ause": 970,
      "##lles": 971,
      "make": 972,
      "##ile": 973,
      "très": 974,
      "Elle": 975,
      "ob": 976,
      "propos": 977,
      "che": 978,
      "##fore": 979,
      "too": 980,
      "##ale": 981,
      "##ied": 982,
      "Pr": 983,
      "were": 984,
      "look": 985,
      "How": 986,
      "##ary": 987,
      "##ress": 988,
      "##quoi": 989,
      "main": 990,
      "af": 991,
      "sou": 992,
      "##ense": 993,
      "only": 994,
      "cour": 995,
      "##own": 996,
      "diff": 997,
      "than": 998,
      "##av": 999,
      "If": 1000,
      "##ave": 1001,
      "De": 1002,
      "when": 1003,
      "again": 1004,
      "##ures": 1005,
      "##mps": 1006,
      "important": 1007,
      "let": 1008,
      "##its": 1009,
      "over": 1010,
      "how": 1011,
      "##ins": 1012,
      "mes": 1013,
      "rec": 1014,
      "##thing": 1015,
      "##iens": 1016,
      "##rat": 1017,
      "also": 1018,
      "##rai": 1019,
      "way": 1020,
      "##itu": 1021,
      "min": 1022,
      "car": 1023,
      "toi": 1024,
      "enc": 1025,
      "##vent": 1026,
      "They": 1027,
      "##cher": 1028,
      "##get": 1029,
      "veux": 1030,
      "thing": 1031,
      "##ertain": 1032,
      "rien": 1033,
      "##ak": 1034,
      "##ittle": 1035,
      "sp": 1036,
      "inc": 1037,
      "##ip": 1038,
      "grand": 1039,
      "tro": 1040,
      "##aux": 1041,
      "##én": 1042,
      "##ler": 1043,
      "##uis": 1044,
      "tous": 1045,
      "ils": 1046,
      "Al": 1047,
      "##uch": 1048,
      "##mme": 1049,
      "inst": 1050,
      "bl": 1051,
      "every": 1052,
      "ég": 1053,
      "##ood": 1054,
      "sec": 1055,
      "prés": 1056,
      "rem": 1057,
      "demand": 1058,
      ".\"": 1059,
      "deux": 1060,
      "Me": 1061,
      "work": 1062,
      "vais": 1063,
      "peu": 1064,
      "trava": 1065,
      "##les": 1066,
      "##ants": 1067,
      "little": 1068,
      "##li": 1069,
      "point": 1070,
      "notre": 1071,
      "déc": 1072,
      "##ange": 1073,
      "##ante": 1074,
      "##ass": 1075,
      "ple": 1076,
      "êtes": 1077,
      "##wn": 1078,
      "An": 1079,
      "ac": 1080,
      "faut": 1081,
      "ret": 1082,
      "these": 1083,
      "Ça": 1084,
      "##ème": 1085,
      "##ouver": 1086,
      "Con": 1087,
      "##ends": 1088,
      "aw": 1089,
      "Pres": 1090,
      "doit": 1091,
      "##ople": 1092,
      "##self": 1093,
      "dro": 1094,
      "##iques": 1095,
      "##we": 1096,
      "##rait": 1097,
      "nouve": 1098,
      "##ach": 1099,
      "Now": 1100,
      "non": 1101,
      "voir": 1102,
      "avons": 1103,
      "count": 1104,
      "Monsieur": 1105,
      "conf": 1106,
      "avoir": 1107,
      "ton": 1108,
      "pré": 1109,
      "jam": 1110,
      "bec": 1111,
      "##cial": 1112,
      "emp": 1113,
      "certain": 1114,
      "##enc": 1115,
      "arri": 1116,
      "down": 1117,
      "##di": 1118,
      "never": 1119,
      "question": 1120,
      "new": 1121,
      "pass": 1122,
      "aff": 1123,
      "inf": 1124,
      "somet": 1125,
      "##irst": 1126,
      "pays": 1127,
      "##be": 1128,
      "sc": 1129,
      "##other": 1130,
      "entre": 1131,
      "##rais": 1132,
      "fer": 1133,
      "##lé": 1134,
      "ass": 1135,
      "She": 1136,
      "pet": 1137,
      "##bre": 1138,
      "##une": 1139,
      "env": 1140,
      "##sez": 1141,
      "op": 1142,
      "##onom": 1143,
      "their": 1144,
      "européenne": 1145,
      "place": 1146,
      "trans": 1147,
      "people": 1148,
      "##alement": 1149,
      "##lie": 1150,
      "##ict": 1151,
      "Oui": 1152,
      "Do": 1153,
      "other": 1154,
      "love": 1155,
      "As": 1156,
      "Why": 1157,
      "much": 1158,
      "nu": 1159,
      "sais": 1160,
      "All": 1161,
      "Ils": 1162,
      "nom": 1163,
      "##old": 1164,
      "autre": 1165,
      "tal": 1166,
      "homme": 1167,
      "inv": 1168,
      "##ome": 1169,
      "##ête": 1170,
      "jamais": 1171,
      "tw": 1172,
      "Yes": 1173,
      "##ning": 1174,
      "##fe": 1175,
      "Fr": 1176,
      "##ieux": 1177,
      "mal": 1178,
      "##aires": 1179,
      "chose": 1180,
      "##oute": 1181,
      "##ather": 1182,
      "##ms": 1183,
      "##ought": 1184,
      "##aine": 1185,
      "##ty": 1186,
      "happ": 1187,
      "ven": 1188,
      "ind": 1189,
      "##iz": 1190,
      "Don": 1191,
      "po": 1192,
      "##anc": 1193,
      "État": 1194,
      "##ject": 1195,
      "under": 1196,
      "peux": 1197,
      "##velop": 1198,
      "encore": 1199,
      "leur": 1200,
      "ref": 1201,
      "##ute": 1202,
      "possi": 1203,
      "produ": 1204,
      "does": 1205,
      "##ks": 1206,
      "où": 1207,
      "partic": 1208,
      "give": 1209,
      "##ody": 1210,
      "into": 1211,
      "President": 1212,
      "jour": 1213,
      "aim": 1214,
      "didn": 1215,
      "spe": 1216,
      "So": 1217,
      "##ical": 1218,
      "##jours": 1219,
      "St": 1220,
      "prog": 1221,
      "dép": 1222,
      "something": 1223,
      "Is": 1224,
      "rev": 1225,
      "##ey": 1226,
      "##ues": 1227,
      "disc": 1228,
      "##ational": 1229,
      "Ma": 1230,
      "##ves": 1231,
      "##lia": 1232,
      "supp": 1233,
      "cela": 1234,
      "ro": 1235,
      "rel": 1236,
      "ins": 1237,
      "##ention": 1238,
      "##ph": 1239,
      "##jour": 1240,
      "##bles": 1241,
      "##cept": 1242,
      "Re": 1243,
      "##up": 1244,
      "##ôt": 1245,
      "##ild": 1246,
      "where": 1247,
      "rapport": 1248,
      "bon": 1249,
      "two": 1250,
      "ann": 1251,
      "accord": 1252,
      "##isse": 1253,
      "made": 1254,
      "compr": 1255,
      "said": 1256,
      "call": 1257,
      "##row": 1258,
      "bo": 1259,
      "temps": 1260,
      "##par": 1261,
      "report": 1262,
      "first": 1263,
      "sans": 1264,
      "##act": 1265,
      "toujours": 1266,
      "even": 1267,
      "met": 1268,
      "Prés": 1269,
      "autres": 1270,
      "well": 1271,
      "enf": 1272,
      "##tenant": 1273,
      "##man": 1274,
      "##êt": 1275,
      "use": 1276,
      "sera": 1277,
      "sy": 1278,
      "memb": 1279,
      "serv": 1280,
      "##ret": 1281,
      "ain": 1282,
      "pouv": 1283,
      "Jo": 1284,
      "rais": 1285,
      "##liament": 1286,
      "##vez": 1287,
      "My": 1288,
      "those": 1289,
      "##mm": 1290,
      "Non": 1291,
      "##ady": 1292,
      "conn": 1293,
      "##lez": 1294,
      "##iter": 1295,
      "##ric": 1296,
      "##uss": 1297,
      "prin": 1298,
      "sav": 1299,
      "esp": 1300,
      "##rer": 1301,
      "##vers": 1302,
      "Une": 1303,
      "fo": 1304,
      "##ls": 1305,
      "better": 1306,
      "vrai": 1307,
      "##cess": 1308,
      "##ug": 1309,
      "voul": 1310,
      "##jet": 1311,
      "déj": 1312,
      "##ious": 1313,
      "##ful": 1314,
      "Be": 1315,
      "its": 1316,
      "const": 1317,
      "##amp": 1318,
      "Président": 1319,
      "##gent": 1320,
      "quand": 1321,
      "won": 1322,
      "##aient": 1323,
      "find": 1324,
      "ess": 1325,
      "##arm": 1326,
      "put": 1327,
      "situ": 1328,
      "##anger": 1329,
      "pense": 1330,
      "Pourquoi": 1331,
      "pens": 1332,
      "##day": 1333,
      "dep": 1334,
      "##cil": 1335,
      "vis": 1336,
      "##llez": 1337,
      "hum": 1338,
      "##lic": 1339,
      "##ents": 1340,
      "##til": 1341,
      "##ouse": 1342,
      "pres": 1343,
      "then": 1344,
      "##ny": 1345,
      "##ré": 1346,
      "##près": 1347,
      "rés": 1348,
      "également": 1349,
      "end": 1350,
      "##ah": 1351,
      "##ull": 1352,
      "##ib": 1353,
      "##ider": 1354,
      "night": 1355,
      "mean": 1356,
      "str": 1357,
      "Parliament": 1358,
      "##oth": 1359,
      "##aut": 1360,
      "200": 1361,
      "##ives": 1362,
      "sol": 1363,
      "before": 1364,
      "donc": 1365,
      "why": 1366,
      "rég": 1367,
      "fois": 1368,
      "avant": 1369,
      "Parlement": 1370,
      "beau": 1371,
      "resp": 1372,
      "because": 1373,
      "great": 1374,
      "sign": 1375,
      "prom": 1376,
      "belie": 1377,
      "##ved": 1378,
      "##omm": 1379,
      "nos": 1380,
      "ans": 1381,
      "Am": 1382,
      "may": 1383,
      "Mar": 1384,
      "##éd": 1385,
      "év": 1386,
      "##onna": 1387,
      "bas": 1388,
      "concern": 1389,
      "Mad": 1390,
      "##eep": 1391,
      "sem": 1392,
      "##vre": 1393,
      "États": 1394,
      "ses": 1395,
      "##body": 1396,
      "##ank": 1397,
      "Au": 1398,
      "old": 1399,
      "##ule": 1400,
      "EU": 1401,
      "publ": 1402,
      "away": 1403,
      "gent": 1404,
      "hand": 1405,
      "politique": 1406,
      "cas": 1407,
      "mont": 1408,
      "situation": 1409,
      "##itions": 1410,
      "déb": 1411,
      "##ving": 1412,
      "pris": 1413,
      "##min": 1414,
      "##ope": 1415,
      "##igh": 1416,
      "##iste": 1417,
      "fais": 1418,
      "trop": 1419,
      "men": 1420,
      "occ": 1421,
      "##ente": 1422,
      "appro": 1423,
      "##ting": 1424,
      "after": 1425,
      "rép": 1426,
      "dec": 1427,
      "##urn": 1428,
      "cap": 1429,
      "##teur": 1430,
      "cit": 1431,
      "##ative": 1432,
      "bes": 1433,
      "##ctive": 1434,
      "particul": 1435,
      "Se": 1436,
      "last": 1437,
      "sub": 1438,
      "##lp": 1439,
      "##ath": 1440,
      "##seil": 1441,
      "fl": 1442,
      "soir": 1443,
      "gl": 1444,
      "monde": 1445,
      "déjà": 1446,
      "##rib": 1447,
      "anything": 1448,
      "Let": 1449,
      "amend": 1450,
      "help": 1451,
      "##ole": 1452,
      "Mon": 1453,
      "##ways": 1454,
      "regard": 1455,
      "##ères": 1456,
      "mom": 1457,
      "quoi": 1458,
      "devons": 1459,
      "rapp": 1460,
      "still": 1461,
      "##ian": 1462,
      "years": 1463,
      "sû": 1464,
      "##ater": 1465,
      "such": 1466,
      "cet": 1467,
      "Stat": 1468,
      "##ision": 1469,
      "cor": 1470,
      "fun": 1471,
      "thr": 1472,
      "being": 1473,
      "toute": 1474,
      "probl": 1475,
      "##ctor": 1476,
      "##ated": 1477,
      "Member": 1478,
      "ask": 1479,
      "cle": 1480,
      "##ever": 1481,
      "sort": 1482,
      "##rit": 1483,
      "States": 1484,
      "##sem": 1485,
      "believe": 1486,
      "mill": 1487,
      "heure": 1488,
      "Pas": 1489,
      "tom": 1490,
      "##xt": 1491,
      "##gan": 1492,
      "Come": 1493,
      "possible": 1494,
      "pay": 1495,
      "contin": 1496,
      "life": 1497,
      "##alis": 1498,
      "##ries": 1499,
      "besoin": 1500,
      "sir": 1501,
      "voud": 1502,
      "contre": 1503,
      "Just": 1504,
      "##ft": 1505,
      "wom": 1506,
      "prem": 1507,
      "cher": 1508,
      "money": 1509,
      "Ar": 1510,
      "##ieu": 1511,
      "##ory": 1512,
      "membres": 1513,
      "vu": 1514,
      "##èg": 1515,
      "maintenant": 1516,
      "##ités": 1517,
      "##ets": 1518,
      "dern": 1519,
      "##aî": 1520,
      "##era": 1521,
      "rest": 1522,
      "##ix": 1523,
      "gonna": 1524,
      "##llow": 1525,
      "sommes": 1526,
      "##erci": 1527,
      "##land": 1528,
      "crois": 1529,
      "always": 1530,
      "id": 1531,
      "##ils": 1532,
      "At": 1533,
      "keep": 1534,
      "##ouncil": 1535,
      "polic": 1536,
      "moment": 1537,
      "déf": 1538,
      "##ince": 1539,
      "parler": 1540,
      "gen": 1541,
      "aime": 1542,
      "fam": 1543,
      "chance": 1544,
      "bu": 1545,
      "##elle": 1546,
      "matter": 1547,
      "soit": 1548,
      "fri": 1549,
      "gir": 1550,
      "Conseil": 1551,
      "boy": 1552,
      "through": 1553,
      "Council": 1554,
      "femme": 1555,
      "thought": 1556,
      "Miss": 1557,
      "ép": 1558,
      "syst": 1559,
      "talk": 1560,
      "##ial": 1561,
      "Your": 1562,
      "simp": 1563,
      "respons": 1564,
      "course": 1565,
      "arr": 1566,
      "own": 1567,
      "commun": 1568,
      "##ié": 1569,
      "dois": 1570,
      "coup": 1571,
      "things": 1572,
      "princi": 1573,
      "day": 1574,
      "same": 1575,
      "##ake": 1576,
      "##coup": 1577,
      "quelque": 1578,
      "##endant": 1579,
      "##ible": 1580,
      "##met": 1581,
      "##ché": 1582,
      "Sh": 1583,
      "##arl": 1584,
      "prof": 1585,
      "travail": 1586,
      "world": 1587,
      "try": 1588,
      "dés": 1589,
      "Pe": 1590,
      "hui": 1591,
      "##érie": 1592,
      "nothing": 1593,
      "Alors": 1594,
      "##per": 1595,
      "argent": 1596,
      "wait": 1597,
      "##ered": 1598,
      "##arge": 1599,
      "feel": 1600,
      "##nes": 1601,
      "leg": 1602,
      "dr": 1603,
      "##iers": 1604,
      "Where": 1605,
      "ph": 1606,
      "iss": 1607,
      "##enez": 1608,
      "adop": 1609,
      "##jourd": 1610,
      "For": 1611,
      "Tout": 1612,
      "##ific": 1613,
      "Dans": 1614,
      "Vo": 1615,
      "inform": 1616,
      "jou": 1617,
      "sout": 1618,
      "##ta": 1619,
      "show": 1620,
      "bud": 1621,
      "dou": 1622,
      "##abil": 1623,
      "vos": 1624,
      "really": 1625,
      "fut": 1626,
      "19": 1627,
      "##ards": 1628,
      "##llement": 1629,
      "bus": 1630,
      "personne": 1631,
      "ext": 1632,
      "around": 1633,
      "respect": 1634,
      "beaucoup": 1635,
      "mieux": 1636,
      "##lus": 1637,
      "dra": 1638,
      "pourquoi": 1639,
      "avait": 1640,
      "eu": 1641,
      "##éri": 1642,
      "dir": 1643,
      "##quer": 1644,
      "intern": 1645,
      "petit": 1646,
      "progra": 1647,
      "support": 1648,
      "name": 1649,
      "Comment": 1650,
      "plan": 1651,
      "prote": 1652,
      "##ily": 1653,
      "home": 1654,
      "might": 1655,
      "many": 1656,
      "##ock": 1657,
      "When": 1658,
      "mind": 1659,
      "aller": 1660,
      "##omp": 1661,
      "object": 1662,
      "après": 1663,
      "wr": 1664,
      "public": 1665,
      "cra": 1666,
      "hope": 1667,
      "##endu": 1668,
      "done": 1669,
      "Cel": 1670,
      "Go": 1671,
      "##imes": 1672,
      "care": 1673,
      "présent": 1674,
      "sens": 1675,
      "sure": 1676,
      "Lo": 1677,
      "##ices": 1678,
      "Then": 1679,
      "wan": 1680,
      "countries": 1681,
      "mor": 1682,
      "mort": 1683,
      "##ros": 1684,
      "##né": 1685,
      "enough": 1686,
      "diffic": 1687,
      "20": 1688,
      "##gg": 1689,
      "##iller": 1690,
      "##oire": 1691,
      "Comm": 1692,
      "##dre": 1693,
      "play": 1694,
      "exc": 1695,
      "air": 1696,
      "##ost": 1697,
      "##ances": 1698,
      "##ities": 1699,
      "connais": 1700,
      "ach": 1701,
      "##iness": 1702,
      "##ises": 1703,
      "soci": 1704,
      "##erc": 1705,
      "##igne": 1706,
      "Not": 1707,
      "most": 1708,
      "sent": 1709,
      "sûr": 1710,
      "##ats": 1711,
      "##olog": 1712,
      "depuis": 1713,
      "told": 1714,
      "##ôle": 1715,
      "mari": 1716,
      "##mmes": 1717,
      "##ilà": 1718,
      "##çon": 1719,
      "isn": 1720,
      "change": 1721,
      "May": 1722,
      "sm": 1723,
      "kind": 1724,
      "To": 1725,
      "vi": 1726,
      "Où": 1727,
      "lad": 1728,
      "auc": 1729,
      "##ts": 1730,
      "cond": 1731,
      "empl": 1732,
      "économ": 1733,
      "ren": 1734,
      "disp": 1735,
      "voudrais": 1736,
      "##oses": 1737,
      "please": 1738,
      "prendre": 1739,
      "Did": 1740,
      "##enir": 1741,
      "agree": 1742,
      "##erais": 1743,
      "cla": 1744,
      "against": 1745,
      "##ced": 1746,
      "dém": 1747,
      "##als": 1748,
      "dur": 1749,
      "gar": 1750,
      "##hn": 1751,
      "clear": 1752,
      "bro": 1753,
      "fond": 1754,
      "aujourd": 1755,
      "##ber": 1756,
      "##ivent": 1757,
      "Des": 1758,
      "avais": 1759,
      "pap": 1760,
      "veut": 1761,
      "##ieurs": 1762,
      "lot": 1763,
      "##ement": 1764,
      "##isl": 1765,
      "doing": 1766,
      "child": 1767,
      "##auv": 1768,
      "##ork": 1769,
      "##ov": 1770,
      "père": 1771,
      "##alité": 1772,
      "coop": 1773,
      "ec": 1774,
      "##att": 1775,
      "dear": 1776,
      "##ages": 1777,
      "##na": 1778,
      "000": 1779,
      "Good": 1780,
      "Qui": 1781,
      "big": 1782,
      "today": 1783,
      "##olution": 1784,
      "happen": 1785,
      "##lar": 1786,
      "Gr": 1787,
      "real": 1788,
      "##ency": 1789,
      "envir": 1790,
      "##orter": 1791,
      "shall": 1792,
      "##ings": 1793,
      "étais": 1794,
      "organ": 1795,
      "seul": 1796,
      "##ween": 1797,
      "##men": 1798,
      "eng": 1799,
      "without": 1800,
      "gentle": 1801,
      "##rent": 1802,
      "prov": 1803,
      "ris": 1804,
      "tant": 1805,
      "##ister": 1806,
      "bre": 1807,
      "##ocrat": 1808,
      "mot": 1809,
      "case": 1810,
      "fact": 1811,
      "Here": 1812,
      "##utions": 1813,
      "oubl": 1814,
      "Quel": 1815,
      "stand": 1816,
      "##gy": 1817,
      "Cela": 1818,
      "Are": 1819,
      "gén": 1820,
      "bonne": 1821,
      "attend": 1822,
      "##ub": 1823,
      "country": 1824,
      "##ences": 1825,
      "repr": 1826,
      "Madame": 1827,
      "moins": 1828,
      "princip": 1829,
      "comment": 1830,
      "vote": 1831,
      "between": 1832,
      "Cette": 1833,
      "##isation": 1834,
      "girl": 1835,
      "##uck": 1836,
      "develop": 1837,
      "##venir": 1838,
      "nombre": 1839,
      "proble": 1840,
      "policy": 1841,
      "human": 1842,
      "meet": 1843,
      "leave": 1844,
      "##stand": 1845,
      "réf": 1846,
      "##cle": 1847,
      "voulez": 1848,
      "dom": 1849,
      "serait": 1850,
      "##hed": 1851,
      "##ating": 1852,
      "wouldn": 1853,
      "Quand": 1854,
      "vol": 1855,
      "##illes": 1856,
      "fra": 1857,
      "##orry": 1858,
      "##ches": 1859,
      "laiss": 1860,
      "gard": 1861,
      "alors": 1862,
      "dont": 1863,
      "##idence": 1864,
      "cha": 1865,
      "another": 1866,
      "##imin": 1867,
      "bar": 1868,
      "tak": 1869,
      "therefore": 1870,
      "Ye": 1871,
      "conv": 1872,
      "##écess": 1873,
      "hon": 1874,
      "##ouvez": 1875,
      "Who": 1876,
      "##em": 1877,
      "coll": 1878,
      "nécess": 1879,
      "##ature": 1880,
      "everything": 1881,
      "ide": 1882,
      "budget": 1883,
      "fille": 1884,
      "ste": 1885,
      "##ton": 1886,
      "econom": 1887,
      "ty": 1888,
      "voy": 1889,
      "vraiment": 1890,
      "##isten": 1891,
      "came": 1892,
      "juste": 1893,
      "raison": 1894,
      "Can": 1895,
      "##not": 1896,
      "deb": 1897,
      "pat": 1898,
      "word": 1899,
      "savoir": 1900,
      "Bar": 1901,
      "II": 1902,
      "form": 1903,
      "Ex": 1904,
      "finan": 1905,
      "##ites": 1906,
      "reste": 1907,
      "##aît": 1908,
      "10": 1909,
      "gra": 1910,
      "##llo": 1911,
      "##orts": 1912,
      "trois": 1913,
      "Br": 1914,
      "Bon": 1915,
      "##vern": 1916,
      "lors": 1917,
      "##ulation": 1918,
      "##ried": 1919,
      "##vé": 1920,
      "##ene": 1921,
      "lég": 1922,
      "##fic": 1923,
      "monsieur": 1924,
      "hear": 1925,
      "cur": 1926,
      "##ng": 1927,
      "##ready": 1928,
      "maj": 1929,
      "Af": 1930,
      "wish": 1931,
      "##ates": 1932,
      "law": 1933,
      "##ales": 1934,
      "Te": 1935,
      "##ains": 1936,
      "questions": 1937,
      "mad": 1938,
      "train": 1939,
      "abs": 1940,
      "John": 1941,
      "directive": 1942,
      "suff": 1943,
      "##ience": 1944,
      "##agne": 1945,
      "lib": 1946,
      "droit": 1947,
      "comb": 1948,
      "police": 1949,
      "UE": 1950,
      "##onnes": 1951,
      "job": 1952,
      "##ession": 1953,
      "trouv": 1954,
      "suppose": 1955,
      "Pro": 1956,
      "already": 1957,
      "set": 1958,
      "##erez": 1959,
      "kill": 1960,
      "dévelop": 1961,
      "room": 1962,
      "##bil": 1963,
      "add": 1964,
      "cent": 1965,
      "chez": 1966,
      "!\"": 1967,
      "national": 1968,
      "##ye": 1969,
      "effect": 1970,
      "##sed": 1971,
      "util": 1972,
      "##eng": 1973,
      "##utes": 1974,
      "doivent": 1975,
      "##fois": 1976,
      "##usqu": 1977,
      "##orrow": 1978,
      "choses": 1979,
      "process": 1980,
      "trouver": 1981,
      "ca": 1982,
      "face": 1983,
      "business": 1984,
      "Get": 1985,
      "tour": 1986,
      "minute": 1987,
      "Votre": 1988,
      "hist": 1989,
      "##ici": 1990,
      "toutes": 1991,
      "far": 1992,
      "##semble": 1993,
      "nuit": 1994,
      "Allez": 1995,
      "droits": 1996,
      "understand": 1997,
      "intér": 1998,
      "##erve": 1999,
      "##oss": 2000,
      "cannot": 2001,
      "el": 2002,
      "demande": 2003,
      "appr": 2004,
      "social": 2005,
      "Will": 2006,
      "reas": 2007,
      "##ife": 2008,
      "stay": 2009,
      "mess": 2010,
      "##arn": 2011,
      "mark": 2012,
      "head": 2013,
      "expl": 2014,
      "pa": 2015,
      "seen": 2016,
      "rapporte": 2017,
      "##agn": 2018,
      "differ": 2019,
      "hu": 2020,
      "fav": 2021,
      "year": 2022,
      "##hait": 2023,
      "guy": 2024,
      "vois": 2025,
      "donner": 2026,
      "bad": 2027,
      "##ract": 2028,
      "##uses": 2029,
      "mé": 2030,
      "left": 2031,
      "stop": 2032,
      "problème": 2033,
      "##uer": 2034,
      "three": 2035,
      "action": 2036,
      "##cted": 2037,
      "proc": 2038,
      "souhait": 2039,
      "Say": 2040,
      "##ables": 2041,
      "position": 2042,
      "consid": 2043,
      "mis": 2044,
      "##ras": 2045,
      "##ration": 2046,
      "##ote": 2047,
      "##ération": 2048,
      "once": 2049,
      "both": 2050,
      "coming": 2051,
      "mod": 2052,
      "swe": 2053,
      "best": 2054,
      "whole": 2055,
      "ainsi": 2056,
      "leurs": 2057,
      "##oupe": 2058,
      "##ness": 2059,
      "##ames": 2060,
      "myself": 2061,
      "four": 2062,
      "partir": 2063,
      "##led": 2064,
      "Yeah": 2065,
      "##ane": 2066,
      "##ior": 2067,
      "few": 2068,
      "proposition": 2069,
      "instit": 2070,
      "dist": 2071,
      "run": 2072,
      "tonight": 2073,
      "requ": 2074,
      "art": 2075,
      "Eh": 2076,
      "espère": 2077,
      "Bien": 2078,
      "Look": 2079,
      "##vention": 2080,
      "char": 2081,
      "assez": 2082,
      "##lu": 2083,
      "agit": 2084,
      "cre": 2085,
      "open": 2086,
      "protection": 2087,
      "##cell": 2088,
      "future": 2089,
      "young": 2090,
      "start": 2091,
      "father": 2092,
      "##way": 2093,
      "règ": 2094,
      "##ides": 2095,
      "##yez": 2096,
      "meille": 2097,
      "sous": 2098,
      "next": 2099,
      "##ième": 2100,
      "##itte": 2101,
      "Comme": 2102,
      "##ène": 2103,
      "##iment": 2104,
      "yourself": 2105,
      "##aines": 2106,
      "hor": 2107,
      "house": 2108,
      "wee": 2109,
      "Ge": 2110,
      "parce": 2111,
      "cré": 2112,
      "New": 2113,
      "yet": 2114,
      "##cteur": 2115,
      "haven": 2116,
      "attention": 2117,
      "##chn": 2118,
      "##ctions": 2119,
      "particular": 2120,
      "Mlle": 2121,
      "allez": 2122,
      "##équ": 2123,
      "hommes": 2124,
      "friend": 2125,
      "##iel": 2126,
      "Char": 2127,
      "mil": 2128,
      "nouveau": 2129,
      "discuss": 2130,
      "##raid": 2131,
      "vot": 2132,
      "##ifs": 2133,
      "##member": 2134,
      "found": 2135,
      "éle": 2136,
      "bring": 2137,
      "high": 2138,
      "##ited": 2139,
      "hab": 2140,
      "savez": 2141,
      "morning": 2142,
      "port": 2143,
      "##tain": 2144,
      "wanted": 2145,
      "programme": 2146,
      "##atch": 2147,
      "devrait": 2148,
      "dû": 2149,
      "Ces": 2150,
      "giv": 2151,
      "##fin": 2152,
      "Hey": 2153,
      "kid": 2154,
      "##app": 2155,
      "##tement": 2156,
      "compte": 2157,
      "gens": 2158,
      "agric": 2159,
      "political": 2160,
      "##ienne": 2161,
      "gouver": 2162,
      "issue": 2163,
      "sal": 2164,
      "grande": 2165,
      "sorry": 2166,
      "peur": 2167,
      "jusqu": 2168,
      "rights": 2169,
      "exe": 2170,
      "##iser": 2171,
      "différ": 2172,
      "pourrait": 2173,
      "contrib": 2174,
      "Du": 2175,
      "##got": 2176,
      "##ulement": 2177,
      "venir": 2178,
      "citoy": 2179,
      "woman": 2180,
      "##very": 2181,
      "afraid": 2182,
      "vers": 2183,
      "##ières": 2184,
      "##ural": 2185,
      "appel": 2186,
      "##abl": 2187,
      "##ual": 2188,
      "pouvoir": 2189,
      "Tr": 2190,
      "nice": 2191,
      "##erv": 2192,
      "demain": 2193,
      "abord": 2194,
      "elles": 2195,
      "##ines": 2196,
      "Mme": 2197,
      "marché": 2198,
      "used": 2199,
      "##èmes": 2200,
      "chang": 2201,
      "importance": 2202,
      "petite": 2203,
      "##urt": 2204,
      "trou": 2205,
      "##ront": 2206,
      "pret": 2207,
      "imm": 2208,
      "init": 2209,
      "mettre": 2210,
      "cause": 2211,
      "im": 2212,
      "invest": 2213,
      "since": 2214,
      "Have": 2215,
      "maison": 2216,
      "However": 2217,
      "porte": 2218,
      "sujet": 2219,
      "group": 2220,
      "##nement": 2221,
      "préc": 2222,
      "##erai": 2223,
      "interest": 2224,
      "rent": 2225,
      "##less": 2226,
      "##ward": 2227,
      "##éra": 2228,
      "##alf": 2229,
      "journ": 2230,
      "ens": 2231,
      "aurais": 2232,
      "##rons": 2233,
      "heard": 2234,
      "emb": 2235,
      "means": 2236,
      "toget": 2237,
      "##temps": 2238,
      "partie": 2239,
      "##ren": 2240,
      "femmes": 2241,
      "together": 2242,
      "major": 2243,
      "seule": 2244,
      "##ail": 2245,
      "present": 2246,
      "else": 2247,
      "order": 2248,
      "quelques": 2249,
      "transp": 2250,
      "quite": 2251,
      "doesn": 2252,
      "Est": 2253,
      "miss": 2254,
      "##urité": 2255,
      "mois": 2256,
      "##ital": 2257,
      "développe": 2258,
      "##ron": 2259,
      "rester": 2260,
      "##ruct": 2261,
      "fund": 2262,
      "adopt": 2263,
      "minutes": 2264,
      "alone": 2265,
      "live": 2266,
      "##kes": 2267,
      "accept": 2268,
      "##ght": 2269,
      "##ately": 2270,
      "##ument": 2271,
      "##missaire": 2272,
      "##eral": 2273,
      "ensemble": 2274,
      "taken": 2275,
      "able": 2276,
      "Hello": 2277,
      "soon": 2278,
      "Mrs": 2279,
      "ban": 2280,
      "##ager": 2281,
      "second": 2282,
      "information": 2283,
      "##ém": 2284,
      "##ird": 2285,
      "suiv": 2286,
      "cad": 2287,
      "turn": 2288,
      "vue": 2289,
      "rapporteur": 2290,
      "##ulture": 2291,
      "idea": 2292,
      "Ah": 2293,
      "##eration": 2294,
      "beh": 2295,
      "Reg": 2296,
      "Min": 2297,
      "yes": 2298,
      "essent": 2299,
      "Voilà": 2300,
      "vas": 2301,
      "##ament": 2302,
      "##ised": 2303,
      "##teurs": 2304,
      "permet": 2305,
      "techn": 2306,
      "number": 2307,
      "##hip": 2308,
      "##cer": 2309,
      "fight": 2310,
      "##erre": 2311,
      "effic": 2312,
      "services": 2313,
      "\".": 2314,
      "fort": 2315,
      "##unity": 2316,
      "##érer": 2317,
      "difficult": 2318,
      "##écurité": 2319,
      "indust": 2320,
      "##arling": 2321,
      "lim": 2322,
      "##ibil": 2323,
      "getting": 2324,
      "hard": 2325,
      "##iè": 2326,
      "##co": 2327,
      "front": 2328,
      "month": 2329,
      "Es": 2330,
      "##nent": 2331,
      "seulement": 2332,
      "##orth": 2333,
      "##aps": 2334,
      "gentlemen": 2335,
      "mus": 2336,
      "citiz": 2337,
      "aurait": 2338,
      "mère": 2339,
      "puis": 2340,
      "With": 2341,
      "aider": 2342,
      "##onder": 2343,
      "lead": 2344,
      "ami": 2345,
      "beaut": 2346,
      "actue": 2347,
      "follow": 2348,
      "drink": 2349,
      "economic": 2350,
      "##lex": 2351,
      "tomorrow": 2352,
      "type": 2353,
      "happy": 2354,
      "développement": 2355,
      "##io": 2356,
      "##erne": 2357,
      "pouvez": 2358,
      "souv": 2359,
      "sécurité": 2360,
      "viv": 2361,
      "full": 2362,
      "Merci": 2363,
      "##asse": 2364,
      "dest": 2365,
      "Man": 2366,
      "bou": 2367,
      "wife": 2368,
      "##rir": 2369,
      "##dd": 2370,
      "succ": 2371,
      "exemp": 2372,
      "##esse": 2373,
      "speak": 2374,
      "##az": 2375,
      "beg": 2376,
      "wrong": 2377,
      "##eur": 2378,
      "entendu": 2379,
      "##gn": 2380,
      "##itive": 2381,
      "##illeurs": 2382,
      "view": 2383,
      "##ley": 2384,
      "arrive": 2385,
      "state": 2386,
      "market": 2387,
      "sing": 2388,
      "##uff": 2389,
      "façon": 2390,
      "sl": 2391,
      "ten": 2392,
      "##ger": 2393,
      "##qué": 2394,
      "tax": 2395,
      "contr": 2396,
      "enfants": 2397,
      "Har": 2398,
      "Per": 2399,
      "cir": 2400,
      "tard": 2401,
      "aide": 2402,
      "val": 2403,
      "##ower": 2404,
      "reason": 2405,
      "ur": 2406,
      "Dan": 2407,
      "##val": 2408,
      "##tern": 2409,
      "occup": 2410,
      "##ps": 2411,
      "##rodu": 2412,
      "exist": 2413,
      "Mes": 2414,
      "fou": 2415,
      "##oll": 2416,
      "while": 2417,
      "international": 2418,
      "##mer": 2419,
      "##tez": 2420,
      "heart": 2421,
      "saw": 2422,
      "proposal": 2423,
      "ci": 2424,
      "points": 2425,
      "million": 2426,
      "Commissioner": 2427,
      "One": 2428,
      "jours": 2429,
      "women": 2430,
      "citoyens": 2431,
      "obl": 2432,
      "dead": 2433,
      "voit": 2434,
      "nég": 2435,
      "Maybe": 2436,
      "vite": 2437,
      "##orme": 2438,
      "along": 2439,
      "thank": 2440,
      "forget": 2441,
      "nouvelle": 2442,
      "viol": 2443,
      "jur": 2444,
      "nive": 2445,
      "##rez": 2446,
      "##ires": 2447,
      "oblig": 2448,
      "instru": 2449,
      "##ittee": 2450,
      "rend": 2451,
      "##ony": 2452,
      "couldn": 2453,
      "débat": 2454,
      "##abilité": 2455,
      "##ster": 2456,
      "manière": 2457,
      "revoir": 2458,
      "cou": 2459,
      "mur": 2460,
      "##orn": 2461,
      "##ression": 2462,
      "Or": 2463,
      "##my": 2464,
      "deal": 2465,
      "ord": 2466,
      "aimerais": 2467,
      "colle": 2468,
      "##urther": 2469,
      "fall": 2470,
      "Bill": 2471,
      "éner": 2472,
      "##iend": 2473,
      "##cep": 2474,
      "level": 2475,
      "199": 2476,
      "kne": 2477,
      "##eter": 2478,
      "remember": 2479,
      "aura": 2480,
      "looking": 2481,
      "opin": 2482,
      "pouvons": 2483,
      "Ind": 2484,
      "##haps": 2485,
      "hein": 2486,
      "tes": 2487,
      "##leep": 2488,
      "priv": 2489,
      "longtemps": 2490,
      "mention": 2491,
      "##ety": 2492,
      "amour": 2493,
      "guess": 2494,
      "days": 2495,
      "##œur": 2496,
      "mesures": 2497,
      "mother": 2498,
      "meas": 2499,
      "groupe": 2500,
      "ju": 2501,
      "debate": 2502,
      "nature": 2503,
      "pop": 2504,
      "prior": 2505,
      "dispos": 2506,
      "rece": 2507,
      "ago": 2508,
      "##ield": 2509,
      "pretty": 2510,
      "person": 2511,
      "initi": 2512,
      "lieu": 2513,
      "tête": 2514,
      "govern": 2515,
      "passé": 2516,
      "##islation": 2517,
      "opp": 2518,
      "##son": 2519,
      "Every": 2520,
      "##ateurs": 2521,
      "semble": 2522,
      "ni": 2523,
      "faites": 2524,
      "until": 2525,
      "##irer": 2526,
      "matière": 2527,
      "retour": 2528,
      "trying": 2529,
      "Sp": 2530,
      "##cy": 2531,
      "##aise": 2532,
      "essay": 2533,
      "##ired": 2534,
      "doll": 2535,
      "vér": 2536,
      "##ared": 2537,
      "première": 2538,
      "##ys": 2539,
      "read": 2540,
      "entrepr": 2541,
      "15": 2542,
      "fil": 2543,
      "hold": 2544,
      "##ules": 2545,
      "table": 2546,
      "inqu": 2547,
      "vieux": 2548,
      "eur": 2549,
      "##int": 2550,
      "personnes": 2551,
      "représ": 2552,
      "conditions": 2553,
      "démocrat": 2554,
      "ceux": 2555,
      "different": 2556,
      "##atives": 2557,
      "##rible": 2558,
      "consider": 2559,
      "aucun": 2560,
      "##isions": 2561,
      "citizens": 2562,
      "##ép": 2563,
      "idée": 2564,
      "incre": 2565,
      "break": 2566,
      "opport": 2567,
      "##vert": 2568,
      "étr": 2569,
      "service": 2570,
      "Ste": 2571,
      "##riez": 2572,
      "##ume": 2573,
      "##urer": 2574,
      "moy": 2575,
      "quelqu": 2576,
      "matin": 2577,
      "col": 2578,
      "concerne": 2579,
      "renc": 2580,
      "sac": 2581,
      "##lo": 2582,
      "##alk": 2583,
      "##aud": 2584,
      "premier": 2585,
      "ele": 2586,
      "rather": 2587,
      "ville": 2588,
      "commission": 2589,
      "war": 2590,
      "##ism": 2591,
      "taking": 2592,
      "crit": 2593,
      "send": 2594,
      "##lè": 2595,
      "##ode": 2596,
      "##ettez": 2597,
      "chercher": 2598,
      "##alth": 2599,
      "surpr": 2600,
      "appe": 2601,
      "##ably": 2602,
      "cal": 2603,
      "##ying": 2604,
      "vient": 2605,
      "wonder": 2606,
      "?\"": 2607,
      "Take": 2608,
      "##isme": 2609,
      "appelle": 2610,
      "éch": 2611,
      "années": 2612,
      "Ou": 2613,
      "##wer": 2614,
      "##let": 2615,
      "problem": 2616,
      "gone": 2617,
      "accep": 2618,
      "sw": 2619,
      "Fin": 2620,
      "Ir": 2621,
      "condu": 2622,
      "Lais": 2623,
      "tot": 2624,
      "##lease": 2625,
      "Of": 2626,
      "##ither": 2627,
      "cri": 2628,
      "lady": 2629,
      "Paris": 2630,
      "Some": 2631,
      "each": 2632,
      "##ources": 2633,
      "These": 2634,
      "cost": 2635,
      "environ": 2636,
      "##come": 2637,
      "civ": 2638,
      "wants": 2639,
      "politiques": 2640,
      "cadre": 2641,
      "côt": 2642,
      "inte": 2643,
      "prot": 2644,
      "cours": 2645,
      "mine": 2646,
      "Any": 2647,
      "Bl": 2648,
      "Car": 2649,
      "fon": 2650,
      "plais": 2651,
      "continue": 2652,
      "cru": 2653,
      "imag": 2654,
      "exam": 2655,
      "six": 2656,
      "talking": 2657,
      "Mc": 2658,
      "équ": 2659,
      "##atis": 2660,
      "##ande": 2661,
      "esc": 2662,
      "tri": 2663,
      "##lui": 2664,
      "Jim": 2665,
      "##wh": 2666,
      "##ste": 2667,
      "##atique": 2668,
      "##ung": 2669,
      "donne": 2670,
      "serious": 2671,
      "passer": 2672,
      "voulais": 2673,
      "happened": 2674,
      "sau": 2675,
      "réc": 2676,
      "prob": 2677,
      "Sc": 2678,
      "##ether": 2679,
      "problèmes": 2680,
      "result": 2681,
      "prison": 2682,
      "dernière": 2683,
      "celui": 2684,
      "##indre": 2685,
      "niveau": 2686,
      "circ": 2687,
      "large": 2688,
      "vict": 2689,
      "##itude": 2690,
      "Mary": 2691,
      "rap": 2692,
      "autor": 2693,
      "##usement": 2694,
      "knew": 2695,
      "opinion": 2696,
      "viens": 2697,
      "impos": 2698,
      "Ave": 2699,
      "##ror": 2700,
      "inn": 2701,
      "##uth": 2702,
      "wasn": 2703,
      "however": 2704,
      "employ": 2705,
      "énerg": 2706,
      "agreement": 2707,
      "York": 2708,
      "listen": 2709,
      "##anté": 2710,
      "proch": 2711,
      "projet": 2712,
      "married": 2713,
      "glad": 2714,
      "passe": 2715,
      "ready": 2716,
      "regret": 2717,
      "boys": 2718,
      "cin": 2719,
      "oui": 2720,
      "##zy": 2721,
      "close": 2722,
      "affaire": 2723,
      "darling": 2724,
      "eas": 2725,
      "ign": 2726,
      "took": 2727,
      "atte": 2728,
      "##ott": 2729,
      "children": 2730,
      "sait": 2731,
      "water": 2732,
      "##reed": 2733,
      "intérêt": 2734,
      "bra": 2735,
      "sus": 2736,
      "##ili": 2737,
      "achie": 2738,
      "town": 2739,
      "expect": 2740,
      "soul": 2741,
      "##ateur": 2742,
      "Tur": 2743,
      "eux": 2744,
      "##for": 2745,
      "cham": 2746,
      "adv": 2747,
      "went": 2748,
      "Avec": 2749,
      "##band": 2750,
      "donné": 2751,
      "##issement": 2752,
      "##ureau": 2753,
      "solution": 2754,
      "##sembl": 2755,
      "institutions": 2756,
      "##by": 2757,
      "given": 2758,
      "mauv": 2759,
      "##gh": 2760,
      "##duc": 2761,
      "Bonjour": 2762,
      "chaque": 2763,
      "fig": 2764,
      "belle": 2765,
      "making": 2766,
      "introdu": 2767,
      "##rie": 2768,
      "necess": 2769,
      "yeux": 2770,
      "##atisf": 2771,
      "Cour": 2772,
      "##uc": 2773,
      "pot": 2774,
      "##red": 2775,
      "##ivers": 2776,
      "development": 2777,
      "##êche": 2778,
      "##ination": 2779,
      "death": 2780,
      "jeune": 2781,
      "sortir": 2782,
      "fix": 2783,
      "allons": 2784,
      "loin": 2785,
      "within": 2786,
      "working": 2787,
      "efforts": 2788,
      "eau": 2789,
      "##ina": 2790,
      "wel": 2791,
      "avis": 2792,
      "div": 2793,
      "##mit": 2794,
      "force": 2795,
      "excell": 2796,
      "needs": 2797,
      "system": 2798,
      "Tell": 2799,
      "trouble": 2800,
      "says": 2801,
      "##éli": 2802,
      "##ièrement": 2803,
      "parle": 2804,
      "suite": 2805,
      "prend": 2806,
      "contra": 2807,
      "madame": 2808,
      "Moi": 2809,
      "##onnement": 2810,
      "##key": 2811,
      "common": 2812,
      "amis": 2813,
      "Chr": 2814,
      "conséqu": 2815,
      "##été": 2816,
      "certains": 2817,
      "friends": 2818,
      "chérie": 2819,
      "##itable": 2820,
      "compet": 2821,
      "effet": 2822,
      "bab": 2823,
      "##aiss": 2824,
      "##istes": 2825,
      "relations": 2826,
      "économique": 2827,
      "Sa": 2828,
      "rôle": 2829,
      "move": 2830,
      "bord": 2831,
      "##iance": 2832,
      "allow": 2833,
      "##oney": 2834,
      "comes": 2835,
      "hus": 2836,
      "##hor": 2837,
      "##lud": 2838,
      "importe": 2839,
      "inté": 2840,
      "afin": 2841,
      "France": 2842,
      "anim": 2843,
      "prêt": 2844,
      "##selves": 2845,
      "obs": 2846,
      "bit": 2847,
      "star": 2848,
      "année": 2849,
      "aucune": 2850,
      "exemple": 2851,
      "Dis": 2852,
      "##fort": 2853,
      "##inc": 2854,
      "family": 2855,
      "##ification": 2856,
      "##isé": 2857,
      "##itution": 2858,
      "##airs": 2859,
      "Please": 2860,
      "amb": 2861,
      "domaine": 2862,
      "God": 2863,
      "sho": 2864,
      "week": 2865,
      "garant": 2866,
      "financi": 2867,
      "##uit": 2868,
      "##ett": 2869,
      "##ided": 2870,
      "waiting": 2871,
      "pendant": 2872,
      "sleep": 2873,
      "sel": 2874,
      "##aman": 2875,
      "danger": 2876,
      "##rée": 2877,
      "##onse": 2878,
      "##unt": 2879,
      "makes": 2880,
      "gars": 2881,
      "plaît": 2882,
      "trouvé": 2883,
      "fellow": 2884,
      "hands": 2885,
      "occas": 2886,
      "collèg": 2887,
      "poor": 2888,
      "dri": 2889,
      "##yes": 2890,
      "##leur": 2891,
      "envoy": 2892,
      "##amment": 2893,
      "perf": 2894,
      "bal": 2895,
      "##ari": 2896,
      "##olé": 2897,
      "having": 2898,
      "avenir": 2899,
      "secret": 2900,
      "##ma": 2901,
      "commenc": 2902,
      "##ike": 2903,
      "examp": 2904,
      "Voici": 2905,
      "husband": 2906,
      "pleas": 2907,
      "##ogue": 2908,
      "further": 2909,
      "##ze": 2910,
      "##ige": 2911,
      "enfant": 2912,
      "ress": 2913,
      "##mment": 2914,
      "pract": 2915,
      "##oix": 2916,
      "arriver": 2917,
      "affaires": 2918,
      "sé": 2919,
      "##iner": 2920,
      "doc": 2921,
      "Att": 2922,
      "bill": 2923,
      "satisf": 2924,
      "sugg": 2925,
      "production": 2926,
      "Main": 2927,
      "aid": 2928,
      "rac": 2929,
      "aspect": 2930,
      "accomp": 2931,
      "light": 2932,
      "##coute": 2933,
      "del": 2934,
      "##cient": 2935,
      "fool": 2936,
      "##ished": 2937,
      "impro": 2938,
      "absol": 2939,
      "desc": 2940,
      "préf": 2941,
      "progress": 2942,
      "asked": 2943,
      "huh": 2944,
      "seront": 2945,
      "système": 2946,
      "fils": 2947,
      "remar": 2948,
      "##êter": 2949,
      "bed": 2950,
      "activ": 2951,
      "current": 2952,
      "##aking": 2953,
      "devant": 2954,
      "nouvelles": 2955,
      "##iful": 2956,
      "##thers": 2957,
      "région": 2958,
      "50": 2959,
      "direct": 2960,
      "Puis": 2961,
      "Would": 2962,
      "##uel": 2963,
      "guerre": 2964,
      "Cap": 2965,
      "eyes": 2966,
      "inde": 2967,
      "loc": 2968,
      "peuvent": 2969,
      "simple": 2970,
      "Dieu": 2971,
      "fore": 2972,
      "améli": 2973,
      "called": 2974,
      "Joe": 2975,
      "millions": 2976,
      "ait": 2977,
      "free": 2978,
      "##igner": 2979,
      "laisser": 2980,
      "fine": 2981,
      "ill": 2982,
      "true": 2983,
      "ap": 2984,
      "dess": 2985,
      "seems": 2986,
      "Quelle": 2987,
      "prév": 2988,
      "Regard": 2989,
      "measures": 2990,
      "Ag": 2991,
      "er": 2992,
      "bel": 2993,
      "ought": 2994,
      "small": 2995,
      "fis": 2996,
      "##iver": 2997,
      "histoire": 2998,
      "account": 2999,
      "communaut": 3000,
      "camp": 3001,
      "##fer": 3002,
      "dét": 3003,
      "dès": 3004,
      "##side": 3005,
      "health": 3006,
      "rencont": 3007,
      "100": 3008,
      "half": 3009,
      "##raph": 3010,
      "area": 3011,
      "implement": 3012,
      "propose": 3013,
      "famille": 3014,
      "libert": 3015,
      "bureau": 3016,
      "##ually": 3017,
      "##cause": 3018,
      "bi": 3019,
      "fé": 3020,
      "least": 3021,
      "##lace": 3022,
      "comprom": 3023,
      "dre": 3024,
      "##oiselle": 3025,
      "Mal": 3026,
      "base": 3027,
      "##entes": 3028,
      "dernier": 3029,
      "##ize": 3030,
      "Maj": 3031,
      "House": 3032,
      "##ots": 3033,
      "Because": 3034,
      "##ross": 3035,
      "lut": 3036,
      "##wards": 3037,
      "##eric": 3038,
      "marry": 3039,
      "recomm": 3040,
      "favor": 3041,
      "Her": 3042,
      "Lis": 3043,
      "rendre": 3044,
      "##ery": 3045,
      "##arch": 3046,
      "##ality": 3047,
      "cooperation": 3048,
      "##most": 3049,
      "##ling": 3050,
      "##cho": 3051,
      "##éral": 3052,
      "author": 3053,
      "##rions": 3054,
      "##ief": 3055,
      "Peut": 3056,
      "quick": 3057,
      "##iles": 3058,
      "invol": 3059,
      "##jou": 3060,
      "##xte": 3061,
      "celle": 3062,
      "peace": 3063,
      "particip": 3064,
      "strong": 3065,
      "Ca": 3066,
      "hier": 3067,
      "demander": 3068,
      "Bro": 3069,
      "Mor": 3070,
      "santé": 3071,
      "##lin": 3072,
      "ener": 3073,
      "autant": 3074,
      "possibil": 3075,
      "answer": 3076,
      "capit": 3077,
      "amélior": 3078,
      "ailleurs": 3079,
      "def": 3080,
      "trouve": 3081,
      "##ully": 3082,
      "##uvre": 3083,
      "##icle": 3084,
      "genre": 3085,
      "months": 3086,
      "mê": 3087,
      "##ements": 3088,
      "##more": 3089,
      "##utôt": 3090,
      "##med": 3091,
      "gag": 3092,
      "terror": 3093,
      "certainly": 3094,
      "Give": 3095,
      "résul": 3096,
      "Maintenant": 3097,
      "Dites": 3098,
      "bat": 3099,
      "##oon": 3100,
      "recher": 3101,
      "étaient": 3102,
      "applic": 3103,
      "compan": 3104,
      "venu": 3105,
      "chambre": 3106,
      "harm": 3107,
      "strat": 3108,
      "##oci": 3109,
      "arm": 3110,
      "déclar": 3111,
      "côté": 3112,
      "em": 3113,
      "five": 3114,
      "##onst": 3115,
      "##roit": 3116,
      "##ray": 3117,
      "sein": 3118,
      "thinking": 3119,
      "Americ": 3120,
      "beautiful": 3121,
      "grow": 3122,
      "clim": 3123,
      "necessary": 3124,
      "example": 3125,
      "Hel": 3126,
      "Mac": 3127,
      "Our": 3128,
      "##raient": 3129,
      "##agement": 3130,
      "dites": 3131,
      "brought": 3132,
      "transpar": 3133,
      "environnement": 3134,
      "Lou": 3135,
      "nécessaire": 3136,
      "financial": 3137,
      "##ibility": 3138,
      "jol": 3139,
      "##bour": 3140,
      "worry": 3141,
      "dame": 3142,
      "##él": 3143,
      "pourrais": 3144,
      "goes": 3145,
      "transport": 3146,
      "cœur": 3147,
      "mise": 3148,
      "décision": 3149,
      "become": 3150,
      "jouer": 3151,
      "Geor": 3152,
      "ang": 3153,
      "encour": 3154,
      "news": 3155,
      "begin": 3156,
      "gave": 3157,
      "##arly": 3158,
      "late": 3159,
      "##anche": 3160,
      "coopération": 3161,
      "doute": 3162,
      "door": 3163,
      "Thank": 3164,
      "constru": 3165,
      "##erry": 3166,
      "##urity": 3167,
      "less": 3168,
      "environment": 3169,
      "stratég": 3170,
      "Hen": 3171,
      "pai": 3172,
      "terre": 3173,
      "retr": 3174,
      "Sir": 3175,
      "##iche": 3176,
      "equ": 3177,
      "nation": 3178,
      "##mbers": 3179,
      "gouvernement": 3180,
      "##aw": 3181,
      "##lor": 3182,
      "reconn": 3183,
      "##atre": 3184,
      "##antes": 3185,
      "stat": 3186,
      "longer": 3187,
      "offic": 3188,
      "heureux": 3189,
      "Sal": 3190,
      "fonction": 3191,
      "idi": 3192,
      "##gra": 3193,
      "##uf": 3194,
      "prie": 3195,
      "conclus": 3196,
      "Committee": 3197,
      "energy": 3198,
      "hô": 3199,
      "rid": 3200,
      "##ash": 3201,
      "dollars": 3202,
      "spé": 3203,
      "##alisation": 3204,
      "ident": 3205,
      "lost": 3206,
      "dial": 3207,
      "25": 3208,
      "Mess": 3209,
      "vont": 3210,
      "##iff": 3211,
      "##ench": 3212,
      "message": 3213,
      "12": 3214,
      "Ab": 3215,
      "land": 3216,
      "négoci": 3217,
      "bag": 3218,
      "##veur": 3219,
      "##irm": 3220,
      "##antage": 3221,
      "problems": 3222,
      "effective": 3223,
      "résultat": 3224,
      "##atif": 3225,
      "près": 3226,
      "président": 3227,
      "##lément": 3228,
      "later": 3229,
      "mid": 3230,
      "##resent": 3231,
      "connaiss": 3232,
      "##tant": 3233,
      "commer": 3234,
      "mesure": 3235,
      "words": 3236,
      "##ira": 3237,
      "##ters": 3238,
      "super": 3239,
      "crime": 3240,
      "treat": 3241,
      "##moiselle": 3242,
      "##gment": 3243,
      "forward": 3244,
      "His": 3245,
      "Russi": 3246,
      "gun": 3247,
      "mour": 3248,
      "##uve": 3249,
      "##mpl": 3250,
      "amendements": 3251,
      "sk": 3252,
      "sang": 3253,
      "##oud": 3254,
      "champ": 3255,
      "rédu": 3256,
      "App": 3257,
      "mariage": 3258,
      "claire": 3259,
      "Johnny": 3260,
      "représent": 3261,
      "30": 3262,
      "##work": 3263,
      "##uite": 3264,
      "Christ": 3265,
      "Ad": 3266,
      "prix": 3267,
      "court": 3268,
      "procéd": 3269,
      "Sam": 3270,
      "##pri": 3271,
      "whether": 3272,
      "##liquer": 3273,
      "répond": 3274,
      "soutien": 3275,
      "cut": 3276,
      "rê": 3277,
      "##unk": 3278,
      "justice": 3279,
      "##goti": 3280,
      "power": 3281,
      "conte": 3282,
      "plutôt": 3283,
      "orig": 3284,
      "concernant": 3285,
      "paix": 3286,
      "ordre": 3287,
      "ensure": 3288,
      "Messieurs": 3289,
      "luck": 3290,
      "##oke": 3291,
      "##ris": 3292,
      "##leurs": 3293,
      "office": 3294,
      "occasion": 3295,
      "cop": 3296,
      "times": 3297,
      "##onde": 3298,
      "compét": 3299,
      "lang": 3300,
      "##cific": 3301,
      "font": 3302,
      "struct": 3303,
      "##unch": 3304,
      "serai": 3305,
      "processus": 3306,
      "##where": 3307,
      "emm": 3308,
      "unique": 3309,
      "##minist": 3310,
      "papa": 3311,
      "souvent": 3312,
      "Tom": 3313,
      "##bé": 3314,
      "##ones": 3315,
      "negoti": 3316,
      "contro": 3317,
      "Madam": 3318,
      "Toute": 3319,
      "##mis": 3320,
      "##venu": 3321,
      "voilà": 3322,
      "##ney": 3323,
      "press": 3324,
      "except": 3325,
      "parti": 3326,
      "legal": 3327,
      "Pers": 3328,
      "eat": 3329,
      "##ral": 3330,
      "terrible": 3331,
      "secteur": 3332,
      "Sm": 3333,
      "##ove": 3334,
      "##fully": 3335,
      "assist": 3336,
      "Listen": 3337,
      "tiens": 3338,
      "##ically": 3339,
      "enn": 3340,
      "parl": 3341,
      "##érence": 3342,
      "##étaire": 3343,
      "sorte": 3344,
      "##oser": 3345,
      "issues": 3346,
      "##tres": 3347,
      "##ache": 3348,
      "##ension": 3349,
      "demandé": 3350,
      "soient": 3351,
      "yours": 3352,
      "saying": 3353,
      "Elles": 3354,
      "##ormes": 3355,
      "consomm": 3356,
      "perdu": 3357,
      "success": 3358,
      "##ducation": 3359,
      "By": 3360,
      "Dire": 3361,
      "Eng": 3362,
      "arrivé": 3363,
      "transf": 3364,
      "épous": 3365,
      "objectif": 3366,
      "ladies": 3367,
      "dialogue": 3368,
      "piè": 3369,
      "##aving": 3370,
      "##vant": 3371,
      "##oure": 3372,
      "someone": 3373,
      "renfor": 3374,
      "First": 3375,
      "devez": 3376,
      "parlé": 3377,
      "After": 3378,
      "sweet": 3379,
      "Lisb": 3380,
      "##ges": 3381,
      "##ître": 3382,
      "stud": 3383,
      "##auvre": 3384,
      "tué": 3385,
      "##asser": 3386,
      "sit": 3387,
      "party": 3388,
      "résolution": 3389,
      "Notre": 3390,
      "##bor": 3391,
      "##user": 3392,
      "dél": 3393,
      "exact": 3394,
      "safe": 3395,
      "crise": 3396,
      "decision": 3397,
      "clair": 3398,
      "##semblée": 3399,
      "baby": 3400,
      "Ed": 3401,
      "charm": 3402,
      "attendre": 3403,
      "amendement": 3404,
      "##idency": 3405,
      "short": 3406,
      "appar": 3407,
      "glob": 3408,
      "##quelle": 3409,
      "coû": 3410,
      "Ger": 3411,
      "sour": 3412,
      "region": 3413,
      "post": 3414,
      "Majest": 3415,
      "red": 3416,
      "killed": 3417,
      "Sur": 3418,
      "courage": 3419,
      "role": 3420,
      "##je": 3421,
      "quit": 3422,
      "##oles": 3423,
      "##arth": 3424,
      "Son": 3425,
      "##éro": 3426,
      "##fait": 3427,
      "##roy": 3428,
      "corre": 3429,
      "ru": 3430,
      "##ark": 3431,
      "##head": 3432,
      "aren": 3433,
      "compris": 3434,
      "ir": 3435,
      "actions": 3436,
      "déput": 3437,
      "welcome": 3438,
      "wind": 3439,
      "##yn": 3440,
      "##rement": 3441,
      "traité": 3442,
      "administ": 3443,
      "crimin": 3444,
      "murder": 3445,
      "Su": 3446,
      "Sure": 3447,
      "fire": 3448,
      "##ding": 3449,
      "voulons": 3450,
      "favour": 3451,
      "##ss": 3452,
      "##élé": 3453,
      "##enny": 3454,
      "sector": 3455,
      "temp": 3456,
      "croy": 3457,
      "amendments": 3458,
      "jud": 3459,
      "tent": 3460,
      "comple": 3461,
      "propositions": 3462,
      "faveur": 3463,
      "##éré": 3464,
      "includ": 3465,
      "endroit": 3466,
      "Som": 3467,
      "rob": 3468,
      "though": 3469,
      "instant": 3470,
      "difficile": 3471,
      "Charlie": 3472,
      "euro": 3473,
      "Donne": 3474,
      "##enn": 3475,
      "##outh": 3476,
      "exerc": 3477,
      "knows": 3478,
      "rad": 3479,
      "##vious": 3480,
      "peine": 3481,
      "##sible": 3482,
      "milit": 3483,
      "Nick": 3484,
      "food": 3485,
      "##rière": 3486,
      "Sw": 3487,
      "gros": 3488,
      "mer": 3489,
      "##hés": 3490,
      "##ently": 3491,
      "subject": 3492,
      "bén": 3493,
      "rapide": 3494,
      "worth": 3495,
      "laquelle": 3496,
      "anyone": 3497,
      "return": 3498,
      "subst": 3499,
      "march": 3500,
      "cris": 3501,
      "wanna": 3502,
      "journal": 3503,
      "civil": 3504,
      "travailler": 3505,
      "voyage": 3506,
      "Treat": 3507,
      "hur": 3508,
      "mist": 3509,
      "others": 3510,
      "##kay": 3511,
      "##ientôt": 3512,
      "solid": 3513,
      "voiture": 3514,
      "tre": 3515,
      "##off": 3516,
      "commissaire": 3517,
      "gotta": 3518,
      "crazy": 3519,
      "entreprises": 3520,
      "dance": 3521,
      "doctor": 3522,
      "jeun": 3523,
      "##iennent": 3524,
      "##estion": 3525,
      "ship": 3526,
      "resolution": 3527,
      "commit": 3528,
      "product": 3529,
      "organis": 3530,
      "step": 3531,
      "##chool": 3532,
      "ant": 3533,
      "##imer": 3534,
      "seem": 3535,
      "Enfin": 3536,
      "confiance": 3537,
      "prépar": 3538,
      "semaine": 3539,
      "arrêter": 3540,
      "Sch": 3541,
      "past": 3542,
      "##bur": 3543,
      "règlement": 3544,
      "die": 3545,
      "##ners": 3546,
      "##ength": 3547,
      "##ication": 3548,
      "##ption": 3549,
      "##ability": 3550,
      "##aces": 3551,
      "réalis": 3552,
      "Deux": 3553,
      "peup": 3554,
      "Dep": 3555,
      "either": 3556,
      "positive": 3557,
      "fera": 3558,
      "initiative": 3559,
      "cig": 3560,
      "hurt": 3561,
      "##îner": 3562,
      "européens": 3563,
      "##ogn": 3564,
      "couple": 3565,
      "jurid": 3566,
      "##hésion": 3567,
      "Was": 3568,
      "espr": 3569,
      "brother": 3570,
      "collègues": 3571,
      "ev": 3572,
      "sold": 3573,
      "##mi": 3574,
      "laisse": 3575,
      "##cif": 3576,
      "often": 3577,
      "pours": 3578,
      "##resse": 3579,
      "vaut": 3580,
      "remerci": 3581,
      "approach": 3582,
      "cat": 3583,
      "side": 3584,
      "dér": 3585,
      "confl": 3586,
      "reform": 3587,
      "emploi": 3588,
      "pied": 3589,
      "learn": 3590,
      "haut": 3591,
      "parties": 3592,
      "chef": 3593,
      "programmes": 3594,
      "##mettez": 3595,
      "##ener": 3596,
      "enter": 3597,
      "pard": 3598,
      "Che": 3599,
      "num": 3600,
      "pict": 3601,
      "##âche": 3602,
      "commune": 3603,
      "nouveaux": 3604,
      "book": 3605,
      "strate": 3606,
      "concerned": 3607,
      "excellent": 3608,
      "Dav": 3609,
      "watch": 3610,
      "##ann": 3611,
      "##heure": 3612,
      "établ": 3613,
      "égard": 3614,
      "nombreux": 3615,
      "bate": 3616,
      "cand": 3617,
      "din": 3618,
      "réun": 3619,
      "pensais": 3620,
      "maybe": 3621,
      "début": 3622,
      "Plus": 3623,
      "rules": 3624,
      "##ounds": 3625,
      "Bel": 3626,
      "existe": 3627,
      "feu": 3628,
      "##venue": 3629,
      "third": 3630,
      "heures": 3631,
      "souff": 3632,
      "bene": 3633,
      "line": 3634,
      "##occ": 3635,
      "fair": 3636,
      "réponse": 3637,
      "##dit": 3638,
      "story": 3639,
      "areas": 3640,
      "Assemblée": 3641,
      "DE": 3642,
      "Rom": 3643,
      "##dict": 3644,
      "faud": 3645,
      "##termin": 3646,
      "truth": 3647,
      "devoir": 3648,
      "écrit": 3649,
      "evening": 3650,
      "intéress": 3651,
      "Après": 3652,
      "Fait": 3653,
      "Father": 3654,
      "Pap": 3655,
      "pur": 3656,
      "rée": 3657,
      "security": 3658,
      "meilleur": 3659,
      "Co": 3660,
      "nav": 3661,
      "known": 3662,
      "Lond": 3663,
      "mét": 3664,
      "##itation": 3665,
      "##und": 3666,
      "propre": 3667,
      "extra": 3668,
      "cinq": 3669,
      "crisis": 3670,
      "Tw": 3671,
      "arg": 3672,
      "plusieurs": 3673,
      "##ists": 3674,
      "coord": 3675,
      "devrais": 3676,
      "Même": 3677,
      "almost": 3678,
      "Only": 3679,
      "montrer": 3680,
      "Très": 3681,
      "moyen": 3682,
      "outside": 3683,
      "Dem": 3684,
      "Ang": 3685,
      "fondament": 3686,
      "##augh": 3687,
      "##onner": 3688,
      "gentil": 3689,
      "félic": 3690,
      "Rich": 3691,
      "Ser": 3692,
      "lit": 3693,
      "school": 3694,
      "##ush": 3695,
      "##rier": 3696,
      "Venez": 3697,
      "stre": 3698,
      "reç": 3699,
      "establ": 3700,
      "cong": 3701,
      "étiez": 3702,
      "fell": 3703,
      "Frank": 3704,
      "probably": 3705,
      "parten": 3706,
      "##mbre": 3707,
      "figure": 3708,
      "key": 3709,
      "œuvre": 3710,
      "telle": 3711,
      "##acle": 3712,
      "entrer": 3713,
      "liberté": 3714,
      "dream": 3715,
      "##dames": 3716,
      "##pped": 3717,
      "dog": 3718,
      "touch": 3719,
      "##tenir": 3720,
      "buy": 3721,
      "United": 3722,
      "easy": 3723,
      "Even": 3724,
      "Mother": 3725,
      "##enty": 3726,
      "Community": 3727,
      "Dés": 3728,
      "walk": 3729,
      "##enant": 3730,
      "towards": 3731,
      "living": 3732,
      "donn": 3733,
      "##ifie": 3734,
      "Members": 3735,
      "Ann": 3736,
      "oppos": 3737,
      "Ph": 3738,
      "honor": 3739,
      "mauvais": 3740,
      "##rey": 3741,
      "regul": 3742,
      "plaisir": 3743,
      "Pa": 3744,
      "pal": 3745,
      "##ged": 3746,
      "##pl": 3747,
      "particulier": 3748,
      "##aître": 3749,
      "Personne": 3750,
      "##nel": 3751,
      "##endez": 3752,
      "libre": 3753,
      "anybody": 3754,
      "till": 3755,
      "augment": 3756,
      "frère": 3757,
      "arriv": 3758,
      "specific": 3759,
      "See": 3760,
      "anc": 3761,
      "##quel": 3762,
      "content": 3763,
      "Allons": 3764,
      "build": 3765,
      "##ator": 3766,
      "looks": 3767,
      "carry": 3768,
      "general": 3769,
      "behind": 3770,
      "Van": 3771,
      "##rap": 3772,
      "intég": 3773,
      "direction": 3774,
      "Sec": 3775,
      "legislation": 3776,
      "général": 3777,
      "contrôle": 3778,
      "bientôt": 3779,
      "cab": 3780,
      "tit": 3781,
      "##ipe": 3782,
      "##dy": 3783,
      "##den": 3784,
      "Commissaire": 3785,
      "proposals": 3786,
      "refuse": 3787,
      "##ommy": 3788,
      "discussion": 3789,
      "population": 3790,
      "pick": 3791,
      "rich": 3792,
      "quatre": 3793,
      "dos": 3794,
      "puiss": 3795,
      "tort": 3796,
      "##ément": 3797,
      "note": 3798,
      "Chan": 3799,
      "produits": 3800,
      "increas": 3801,
      "manger": 3802,
      "##oor": 3803,
      "##cile": 3804,
      "##ivid": 3805,
      "trade": 3806,
      "Jack": 3807,
      "Ton": 3808,
      "##anç": 3809,
      "perhaps": 3810,
      "during": 3811,
      "oublier": 3812,
      "intérieur": 3813,
      "particularly": 3814,
      "remercier": 3815,
      "Viens": 3816,
      "scient": 3817,
      "##issez": 3818,
      "##ague": 3819,
      "exper": 3820,
      "appropri": 3821,
      "Gu": 3822,
      "##ancer": 3823,
      "dirait": 3824,
      "vivre": 3825,
      "Lord": 3826,
      "dorm": 3827,
      "changer": 3828,
      "girls": 3829,
      "201": 3830,
      "étrang": 3831,
      "dessus": 3832,
      "esprit": 3833,
      "hours": 3834,
      "ferai": 3835,
      "aimer": 3836,
      "##phone": 3837,
      "énergie": 3838,
      "##hors": 3839,
      "trust": 3840,
      "individ": 3841,
      "opportunity": 3842,
      "Rien": 3843,
      "Écoute": 3844,
      "##onel": 3845,
      "##ita": 3846,
      "##oins": 3847,
      "fini": 3848,
      "continu": 3849,
      "responsabilité": 3850,
      "Esp": 3851,
      "complete": 3852,
      "Gl": 3853,
      "ram": 3854,
      "##quet": 3855,
      "##onsoir": 3856,
      "represent": 3857,
      "bless": 3858,
      "refer": 3859,
      "basis": 3860,
      "technolog": 3861,
      "Treaty": 3862,
      "der": 3863,
      "##oie": 3864,
      "##itch": 3865,
      "##rain": 3866,
      "##onté": 3867,
      "tried": 3868,
      "perd": 3869,
      "blood": 3870,
      "défin": 3871,
      "responsibility": 3872,
      "Col": 3873,
      "Pol": 3874,
      "Rep": 3875,
      "##racy": 3876,
      "tuer": 3877,
      "himself": 3878,
      "terms": 3879,
      "bank": 3880,
      "##itié": 3881,
      "##tel": 3882,
      "##llem": 3883,
      "##ified": 3884,
      "road": 3885,
      "comprends": 3886,
      "pensez": 3887,
      "Laissez": 3888,
      "application": 3889,
      "##ressed": 3890,
      "importante": 3891,
      "recogn": 3892,
      "recherche": 3893,
      "Faites": 3894,
      "mér": 3895,
      "foot": 3896,
      "phot": 3897,
      "George": 3898,
      "##bye": 3899,
      "##âce": 3900,
      "##illé": 3901,
      "ceci": 3902,
      "##rient": 3903,
      "approche": 3904,
      "grave": 3905,
      "accepter": 3906,
      "##uter": 3907,
      "##owers": 3908,
      "proced": 3909,
      "##ifier": 3910,
      "##onds": 3911,
      "##soci": 3912,
      "présidence": 3913,
      "risque": 3914,
      "meeting": 3915,
      "ball": 3916,
      "##vi": 3917,
      "Ie": 3918,
      "test": 3919,
      "forgot": 3920,
      "##iale": 3921,
      "souhaite": 3922,
      "Henry": 3923,
      "Cl": 3924,
      "ment": 3925,
      "##ape": 3926,
      "itself": 3927,
      "étud": 3928,
      "##éric": 3929,
      "croire": 3930,
      "horse": 3931,
      "##reedom": 3932,
      "stratégie": 3933,
      "thé": 3934,
      "finance": 3935,
      "mains": 3936,
      "idiot": 3937,
      "500": 3938,
      "##ibles": 3939,
      "##arante": 3940,
      "accident": 3941,
      "From": 3942,
      "bout": 3943,
      "##go": 3944,
      "société": 3945,
      "frapp": 3946,
      "Certain": 3947,
      "Pal": 3948,
      "farm": 3949,
      "honey": 3950,
      "pêche": 3951,
      "prends": 3952,
      "project": 3953,
      "constit": 3954,
      "shoot": 3955,
      "bur": 3956,
      "filles": 3957,
      "hun": 3958,
      "mag": 3959,
      "pain": 3960,
      "##just": 3961,
      "quelle": 3962,
      "##ander": 3963,
      "atta": 3964,
      "addition": 3965,
      "vérité": 3966,
      "rat": 3967,
      "##ète": 3968,
      "appl": 3969,
      "##ched": 3970,
      "entra": 3971,
      "principe": 3972,
      "destin": 3973,
      "##tout": 3974,
      "##iger": 3975,
      "dispar": 3976,
      "règles": 3977,
      "Mesdames": 3978,
      "culture": 3979,
      "fat": 3980,
      "letter": 3981,
      "improve": 3982,
      "More": 3983,
      "maman": 3984,
      "travers": 3985,
      "creat": 3986,
      "sil": 3987,
      "##omb": 3988,
      "tel": 3989,
      "cheval": 3990,
      "achieve": 3991,
      "dress": 3992,
      "quant": 3993,
      "strength": 3994,
      "Cont": 3995,
      "hour": 3996,
      "porter": 3997,
      "anal": 3998,
      "##itting": 3999,
      "voie": 4000,
      "Does": 4001,
      "bateau": 4002,
      "40": 4003,
      "Right": 4004,
      "field": 4005,
      "##ubl": 4006,
      "cho": 4007,
      "##acité": 4008,
      "terme": 4009,
      "##ussie": 4010,
      "combat": 4011,
      "solidar": 4012,
      "date": 4013,
      "lie": 4014,
      "##çons": 4015,
      "aband": 4016,
      "upon": 4017,
      "entendre": 4018,
      "telling": 4019,
      "arrêt": 4020,
      "impossible": 4021,
      "Cal": 4022,
      "fro": 4023,
      "##vision": 4024,
      "laug": 4025,
      "consum": 4026,
      "somebody": 4027,
      "across": 4028,
      "erre": 4029,
      "German": 4030,
      "béné": 4031,
      "Avez": 4032,
      "Tro": 4033,
      "win": 4034,
      "##este": 4035,
      "##enda": 4036,
      "stuff": 4037,
      "##aret": 4038,
      "continuer": 4039,
      "garde": 4040,
      "##gar": 4041,
      "##ablement": 4042,
      "Parce": 4043,
      "remerc": 4044,
      "profession": 4045,
      "gentleman": 4046,
      "fourn": 4047,
      "hang": 4048,
      "join": 4049,
      "pack": 4050,
      "télé": 4051,
      "##rence": 4052,
      "##ué": 4053,
      "med": 4054,
      "impact": 4055,
      "adopted": 4056,
      "frame": 4057,
      "Black": 4058,
      "lutte": 4059,
      "Jul": 4060,
      "batt": 4061,
      "pie": 4062,
      "série": 4063,
      "##oo": 4064,
      "##rimin": 4065,
      "##ève": 4066,
      "##teau": 4067,
      "jeu": 4068,
      "Va": 4069,
      "##ee": 4070,
      "##upe": 4071,
      "remain": 4072,
      "selon": 4073,
      "Depuis": 4074,
      "spect": 4075,
      "##lling": 4076,
      "##ics": 4077,
      "shot": 4078,
      "##avantage": 4079,
      "French": 4080,
      "garçon": 4081,
      "receive": 4082,
      "18": 4083,
      "dut": 4084,
      "sense": 4085,
      "##ana": 4086,
      "dehors": 4087,
      "forme": 4088,
      "##ainc": 4089,
      "##cially": 4090,
      "état": 4091,
      "fonds": 4092,
      "weeks": 4093,
      "##aughter": 4094,
      "Hy": 4095,
      "King": 4096,
      "gre": 4097,
      "##ulent": 4098,
      "##ama": 4099,
      "offer": 4100,
      "State": 4101,
      "##AN": 4102,
      "##ested": 4103,
      "charge": 4104,
      "##ograph": 4105,
      "Exc": 4106,
      "##otel": 4107,
      "##fortun": 4108,
      "##aie": 4109,
      "expr": 4110,
      "devrions": 4111,
      "préocc": 4112,
      "comprendre": 4113,
      "presque": 4114,
      "government": 4115,
      "négociations": 4116,
      "Richard": 4117,
      "Ia": 4118,
      "davantage": 4119,
      "##rate": 4120,
      "docteur": 4121,
      "##els": 4122,
      "manque": 4123,
      "imagine": 4124,
      "Somet": 4125,
      "##ump": 4126,
      "term": 4127,
      "boss": 4128,
      "eh": 4129,
      "freedom": 4130,
      "##aff": 4131,
      "##anter": 4132,
      "surtout": 4133,
      "lose": 4134,
      "##oyez": 4135,
      "cross": 4136,
      "lettre": 4137,
      "##larg": 4138,
      "##eté": 4139,
      "Comb": 4140,
      "gets": 4141,
      "access": 4142,
      "uh": 4143,
      "savais": 4144,
      "hors": 4145,
      "pauvre": 4146,
      "sn": 4147,
      "chère": 4148,
      "text": 4149,
      "##ifi": 4150,
      "penser": 4151,
      "funny": 4152,
      "payer": 4153,
      "simply": 4154,
      "Perhaps": 4155,
      "tir": 4156,
      "##cin": 4157,
      "##ultural": 4158,
      "explain": 4159,
      "aspects": 4160,
      "clairement": 4161,
      "ahead": 4162,
      "##dle": 4163,
      "##édi": 4164,
      "##ER": 4165,
      "##aring": 4166,
      "stup": 4167,
      "article": 4168,
      "mêmes": 4169,
      "Pet": 4170,
      "parfait": 4171,
      "##cks": 4172,
      "special": 4173,
      "capitaine": 4174,
      "Bonsoir": 4175,
      "Dr": 4176,
      "Pre": 4177,
      "##ky": 4178,
      "final": 4179,
      "sembl": 4180,
      "san": 4181,
      "élarg": 4182,
      "##oul": 4183,
      "##ara": 4184,
      "##eth": 4185,
      "##érieux": 4186,
      "lovely": 4187,
      "dang": 4188,
      "##ousand": 4189,
      "notamment": 4190,
      "anyway": 4191,
      "deuxième": 4192,
      "objectifs": 4193,
      "##cé": 4194,
      "##cteurs": 4195,
      "##ceed": 4196,
      "chois": 4197,
      "boat": 4198,
      "Prof": 4199,
      "origin": 4200,
      "benef": 4201,
      "hat": 4202,
      "##yp": 4203,
      "##IN": 4204,
      "##terday": 4205,
      "associ": 4206,
      "among": 4207,
      "termin": 4208,
      "double": 4209,
      "started": 4210,
      "Tra": 4211,
      "##rès": 4212,
      "##stitution": 4213,
      "##ald": 4214,
      "plans": 4215,
      "liv": 4216,
      "##pecially": 4217,
      "outre": 4218,
      "intention": 4219,
      "##ocracy": 4220,
      "signific": 4221,
      "simplement": 4222,
      "rentrer": 4223,
      "députés": 4224,
      "Fais": 4225,
      "TH": 4226,
      "##nements": 4227,
      "parole": 4228,
      "loi": 4229,
      "Toutefois": 4230,
      "jeunes": 4231,
      "dinner": 4232,
      "Tous": 4233,
      "kiss": 4234,
      "norm": 4235,
      "##ka": 4236,
      "##pital": 4237,
      "##êcher": 4238,
      "tele": 4239,
      "amoure": 4240,
      "serais": 4241,
      "Lee": 4242,
      "territ": 4243,
      "##ddie": 4244,
      "11": 4245,
      "Hon": 4246,
      "Made": 4247,
      "Pl": 4248,
      "sister": 4249,
      "extre": 4250,
      "croyez": 4251,
      "everybody": 4252,
      "##ocratic": 4253,
      "##erveille": 4254,
      "exactly": 4255,
      "remercie": 4256,
      "cam": 4257,
      "route": 4258,
      "##cul": 4259,
      "document": 4260,
      "dan": 4261,
      "leaving": 4262,
      "##urez": 4263,
      "verre": 4264,
      "doub": 4265,
      "efficace": 4266,
      "imme": 4267,
      "guarante": 4268,
      "candid": 4269,
      "##AT": 4270,
      "##riage": 4271,
      "##oires": 4272,
      "traite": 4273,
      "retard": 4274,
      "protég": 4275,
      "Salut": 4276,
      "##bert": 4277,
      "##atur": 4278,
      "voted": 4279,
      "acqu": 4280,
      "combien": 4281,
      "Cor": 4282,
      "Put": 4283,
      "bé": 4284,
      "body": 4285,
      "##aven": 4286,
      "##ients": 4287,
      "chemin": 4288,
      "législation": 4289,
      "croyais": 4290,
      "mult": 4291,
      "tar": 4292,
      "##anks": 4293,
      "defin": 4294,
      "entire": 4295,
      "Wait": 4296,
      "chéri": 4297,
      "joue": 4298,
      "perfect": 4299,
      "##hod": 4300,
      "##vie": 4301,
      "Unis": 4302,
      "ferme": 4303,
      "subs": 4304,
      "wonderful": 4305,
      "Tommy": 4306,
      "lum": 4307,
      "redu": 4308,
      "éviter": 4309,
      "principle": 4310,
      "##igue": 4311,
      "apporter": 4312,
      "coff": 4313,
      "Group": 4314,
      "game": 4315,
      "##itz": 4316,
      "semaines": 4317,
      "heureuse": 4318,
      "agriculture": 4319,
      "industrie": 4320,
      "Excuse": 4321,
      "Boy": 4322,
      "cold": 4323,
      "soup": 4324,
      "##aged": 4325,
      "présente": 4326,
      "particulièrement": 4327,
      "internation": 4328,
      "garder": 4329,
      "industry": 4330,
      "Ain": 4331,
      "Cro": 4332,
      "Doc": 4333,
      "Sans": 4334,
      "joint": 4335,
      "##ened": 4336,
      "##onneur": 4337,
      "puisse": 4338,
      "##liqu": 4339,
      "Ber": 4340,
      "parlement": 4341,
      "croiss": 4342,
      "certaines": 4343,
      "raisons": 4344,
      "meilleure": 4345,
      "mourir": 4346,
      "negotiations": 4347,
      "Bonne": 4348,
      "##èle": 4349,
      "chall": 4350,
      "arres": 4351,
      "everyone": 4352,
      "Presidency": 4353,
      "greater": 4354,
      "démocratie": 4355,
      "innoc": 4356,
      "peuple": 4357,
      "Dad": 4358,
      "merveille": 4359,
      "##oque": 4360,
      "##ended": 4361,
      "moder": 4362,
      "mach": 4363,
      "perspect": 4364,
      "society": 4365,
      "East": 4366,
      "cry": 4367,
      "qualité": 4368,
      "##idé": 4369,
      "##oph": 4370,
      "entend": 4371,
      "Court": 4372,
      "control": 4373,
      "Combien": 4374,
      "##rés": 4375,
      "##ha": 4376,
      "##yer": 4377,
      "univers": 4378,
      "##usé": 4379,
      "preuve": 4380,
      "immig": 4381,
      "juridique": 4382,
      "##action": 4383,
      "thousand": 4384,
      "top": 4385,
      "saf": 4386,
      "##ensive": 4387,
      "prevent": 4388,
      "##ratul": 4389,
      "pensé": 4390,
      "signifie": 4391,
      "oublié": 4392,
      "##olly": 4393,
      "Cet": 4394,
      "Pard": 4395,
      "hit": 4396,
      "##of": 4397,
      "conse": 4398,
      "stra": 4399,
      "assur": 4400,
      "clearly": 4401,
      "##over": 4402,
      "##jo": 4403,
      "sois": 4404,
      "voici": 4405,
      "oper": 4406,
      "toutefois": 4407,
      "suffis": 4408,
      "##esseur": 4409,
      "Russie": 4410,
      "dim": 4411,
      "tôt": 4412,
      "##ned": 4413,
      "veulent": 4414,
      "commence": 4415,
      "Nothing": 4416,
      "Grand": 4417,
      "voyez": 4418,
      "##alt": 4419,
      "##usion": 4420,
      "européennes": 4421,
      "2000": 4422,
      "institution": 4423,
      "voté": 4424,
      "opportun": 4425,
      "Roy": 4426,
      "régions": 4427,
      "paper": 4428,
      "habit": 4429,
      "prochaine": 4430,
      "throw": 4431,
      "##heur": 4432,
      "asking": 4433,
      "attends": 4434,
      "democracy": 4435,
      "rappel": 4436,
      "pil": 4437,
      "##usse": 4438,
      "aftern": 4439,
      "sociale": 4440,
      "ignore": 4441,
      "##ify": 4442,
      "prep": 4443,
      "##ancing": 4444,
      "soutenir": 4445,
      "ignor": 4446,
      "framework": 4447,
      "Bra": 4448,
      "Gen": 4449,
      "Very": 4450,
      "merci": 4451,
      "##xim": 4452,
      "##ows": 4453,
      "Ital": 4454,
      "franc": 4455,
      "constitu": 4456,
      "protect": 4457,
      "write": 4458,
      "convainc": 4459,
      "swell": 4460,
      "involved": 4461,
      "Rob": 4462,
      "serez": 4463,
      "##ius": 4464,
      "facil": 4465,
      "##illez": 4466,
      "Isn": 4467,
      "communication": 4468,
      "économie": 4469,
      "permett": 4470,
      "instruments": 4471,
      "indeed": 4472,
      "Russia": 4473,
      "Hé": 4474,
      "hate": 4475,
      "##iné": 4476,
      "reach": 4477,
      "rese": 4478,
      "contact": 4479,
      "bras": 4480,
      "discrimin": 4481,
      "draw": 4482,
      "condition": 4483,
      "music": 4484,
      "commencer": 4485,
      "picture": 4486,
      "pauv": 4487,
      "tas": 4488,
      "##uments": 4489,
      "tran": 4490,
      "texte": 4491,
      "surve": 4492,
      "impression": 4493,
      "progrès": 4494,
      "chape": 4495,
      "##lude": 4496,
      "afternoon": 4497,
      "Del": 4498,
      "catch": 4499,
      "mut": 4500,
      "##lant": 4501,
      "##itor": 4502,
      "meur": 4503,
      "perdre": 4504,
      "poursui": 4505,
      "gold": 4506,
      "péri": 4507,
      "song": 4508,
      "black": 4509,
      "influ": 4510,
      "assurer": 4511,
      "boire": 4512,
      "instrument": 4513,
      "surprise": 4514,
      "belong": 4515,
      "extreme": 4516,
      "immedi": 4517,
      "Eddie": 4518,
      "summ": 4519,
      "agir": 4520,
      "ouv": 4521,
      "shouldn": 4522,
      "needed": 4523,
      "envie": 4524,
      "véritable": 4525,
      "conséquent": 4526,
      "Captain": 4527,
      "harmon": 4528,
      "sérieux": 4529,
      "var": 4530,
      "##eness": 4531,
      "truc": 4532,
      "##oise": 4533,
      "Arr": 4534,
      "utilis": 4535,
      "contribution": 4536,
      "né": 4537,
      "##gence": 4538,
      "##llig": 4539,
      "und": 4540,
      "aviez": 4541,
      "partners": 4542,
      "concur": 4543,
      "aurai": 4544,
      "decided": 4545,
      "authorities": 4546,
      "research": 4547,
      "--": 4548,
      "Pat": 4549,
      "hop": 4550,
      "writ": 4551,
      "##otte": 4552,
      "##irez": 4553,
      "##resp": 4554,
      "dix": 4555,
      "thanks": 4556,
      "venez": 4557,
      "Présidente": 4558,
      "excuse": 4559,
      "provide": 4560,
      "risk": 4561,
      "essential": 4562,
      "single": 4563,
      "préoccup": 4564,
      "daughter": 4565,
      "event": 4566,
      "roi": 4567,
      "wast": 4568,
      "fail": 4569,
      "contract": 4570,
      "affect": 4571,
      "répondre": 4572,
      "tirer": 4573,
      "ut": 4574,
      "lives": 4575,
      "concent": 4576,
      "expér": 4577,
      "##léch": 4578,
      "voulu": 4579,
      "takes": 4580,
      "require": 4581,
      "permettre": 4582,
      "dîner": 4583,
      "tend": 4584,
      "##té": 4585,
      "near": 4586,
      "Those": 4587,
      "##rique": 4588,
      "##essor": 4589,
      "montre": 4590,
      "especially": 4591,
      "changed": 4592,
      "duty": 4593,
      "voix": 4594,
      "based": 4595,
      "interests": 4596,
      "hot": 4597,
      "anymore": 4598,
      "aware": 4599,
      "voulait": 4600,
      "promise": 4601,
      "paid": 4602,
      "urgent": 4603,
      "inqui": 4604,
      "company": 4605,
      "Bet": 4606,
      "mou": 4607,
      "tenir": 4608,
      "##ipp": 4609,
      "stage": 4610,
      "violence": 4611,
      "beginning": 4612,
      "Keep": 4613,
      "mand": 4614,
      "##arre": 4615,
      "rele": 4616,
      "##erts": 4617,
      "Never": 4618,
      "actually": 4619,
      "city": 4620,
      "fol": 4621,
      "##èce": 4622,
      "pren": 4623,
      "pros": 4624,
      "ferais": 4625,
      "informations": 4626,
      "giving": 4627,
      "yesterday": 4628,
      "##amental": 4629,
      "actuellement": 4630,
      "autorités": 4631,
      "save": 4632,
      "écr": 4633,
      "pleine": 4634,
      "immédi": 4635,
      "##iar": 4636,
      "déch": 4637,
      "##aught": 4638,
      "proper": 4639,
      "législ": 4640,
      "quickly": 4641,
      "consommateurs": 4642,
      "quitter": 4643,
      "numéro": 4644,
      "strategy": 4645,
      "##ik": 4646,
      "concerns": 4647,
      "integ": 4648,
      "Louis": 4649,
      "safety": 4650,
      "Fl": 4651,
      "én": 4652,
      "##ael": 4653,
      "devenir": 4654,
      "ouvert": 4655,
      "plein": 4656,
      "film": 4657,
      "garantir": 4658,
      "suggest": 4659,
      "rapidement": 4660,
      "hurry": 4661,
      "derrière": 4662,
      "##dition": 4663,
      "##ontre": 4664,
      "threat": 4665,
      "##orce": 4666,
      "##rog": 4667,
      "##iding": 4668,
      "##atever": 4669,
      "command": 4670,
      "signal": 4671,
      "Govern": 4672,
      "moyens": 4673,
      "susp": 4674,
      "##reg": 4675,
      "##lly": 4676,
      "##ettes": 4677,
      "##otion": 4678,
      "sole": 4679,
      "quiet": 4680,
      "minor": 4681,
      "dépens": 4682,
      "enfin": 4683,
      "mots": 4684,
      "Excell": 4685,
      "messieurs": 4686,
      "essentiel": 4687,
      "erreur": 4688,
      "Pop": 4689,
      "tellement": 4690,
      "##missions": 4691,
      "democratic": 4692,
      "trip": 4693,
      "##heureusement": 4694,
      "Ta": 4695,
      "forces": 4696,
      "##veral": 4697,
      "...\"": 4698,
      "check": 4699,
      "matters": 4700,
      "drôle": 4701,
      "Quelqu": 4702,
      "Papa": 4703,
      "13": 4704,
      "sick": 4705,
      "vent": 4706,
      "##rant": 4707,
      "##ude": 4708,
      "##istre": 4709,
      "share": 4710,
      "grâce": 4711,
      "##ept": 4712,
      "Isra": 4713,
      "Amend": 4714,
      "nécessité": 4715,
      "méde": 4716,
      "hôtel": 4717,
      "Mich": 4718,
      "San": 4719,
      "vac": 4720,
      "##port": 4721,
      "##yl": 4722,
      "##pected": 4723,
      "devraient": 4724,
      "mademoiselle": 4725,
      "adoption": 4726,
      "Red": 4727,
      "sound": 4728,
      "##uring": 4729,
      "dég": 4730,
      "##ams": 4731,
      "White": 4732,
      "##ierre": 4733,
      "Regardez": 4734,
      "products": 4735,
      "constitue": 4736,
      "pun": 4737,
      "saur": 4738,
      "viend": 4739,
      "structure": 4740,
      "##cte": 4741,
      "##enu": 4742,
      "##illy": 4743,
      "Doctor": 4744,
      "pièce": 4745,
      "bois": 4746,
      "parents": 4747,
      "Comp": 4748,
      "themselves": 4749,
      "connaissez": 4750,
      "actuelle": 4751,
      "intellig": 4752,
      "Toi": 4753,
      "bott": 4754,
      "ya": 4755,
      "##iod": 4756,
      "##orted": 4757,
      "##stain": 4758,
      "rempl": 4759,
      "##rif": 4760,
      "##ivement": 4761,
      "disapp": 4762,
      "compl": 4763,
      "malad": 4764,
      "##othes": 4765,
      "amendment": 4766,
      "convient": 4767,
      "explo": 4768,
      "increase": 4769,
      "proposed": 4770,
      "Gra": 4771,
      "bla": 4772,
      "eye": 4773,
      "trib": 4774,
      "##cing": 4775,
      "##rew": 4776,
      "##ouss": 4777,
      "déta": 4778,
      "pull": 4779,
      "gagner": 4780,
      "procédure": 4781,
      "Nice": 4782,
      "det": 4783,
      "##érieur": 4784,
      "resources": 4785,
      "Convention": 4786,
      "drama": 4787,
      "Baron": 4788,
      "contraire": 4789,
      "High": 4790,
      "Mart": 4791,
      "éche": 4792,
      "##hes": 4793,
      "attack": 4794,
      "sett": 4795,
      "##iendra": 4796,
      "épouser": 4797,
      "Jan": 4798,
      "##ustom": 4799,
      "interested": 4800,
      "cherche": 4801,
      "economy": 4802,
      "Two": 4803,
      "Off": 4804,
      "##OU": 4805,
      "enl": 4806,
      "pourra": 4807,
      "adhésion": 4808,
      "vieille": 4809,
      "corps": 4810,
      "gener": 4811,
      "extr": 4812,
      "créer": 4813,
      "bébé": 4814,
      "ride": 4815,
      "##atiques": 4816,
      "##uxe": 4817,
      "Thanks": 4818,
      "##ouge": 4819,
      "contrat": 4820,
      "effort": 4821,
      "Beau": 4822,
      "Afric": 4823,
      "doubt": 4824,
      "Cep": 4825,
      "##ocks": 4826,
      "termes": 4827,
      "honest": 4828,
      "suivre": 4829,
      "Arrête": 4830,
      "Cependant": 4831,
      "James": 4832,
      "fi": 4833,
      "##ians": 4834,
      "##pendant": 4835,
      "##ât": 4836,
      "##êtes": 4837,
      "##ata": 4838,
      "concept": 4839,
      "Jean": 4840,
      "cependant": 4841,
      "stick": 4842,
      "appart": 4843,
      "membre": 4844,
      "policies": 4845,
      "patron": 4846,
      "address": 4847,
      "guys": 4848,
      "foreign": 4849,
      "David": 4850,
      "congratul": 4851,
      "##fortunately": 4852,
      "Jud": 4853,
      "##ES": 4854,
      "##ising": 4855,
      "##itiv": 4856,
      "revenir": 4857,
      "##imil": 4858,
      "##igneur": 4859,
      "Aut": 4860,
      "king": 4861,
      "##af": 4862,
      "##ined": 4863,
      "##quie": 4864,
      "aliment": 4865,
      "expliquer": 4866,
      "budg": 4867,
      "reasons": 4868,
      "changé": 4869,
      "McG": 4870,
      "reconnaiss": 4871,
      "opt": 4872,
      "apport": 4873,
      "##étique": 4874,
      "##dred": 4875,
      "innov": 4876,
      "reçu": 4877,
      "Hyun": 4878,
      "Brit": 4879,
      "Jerry": 4880,
      "Ob": 4881,
      "Rome": 4882,
      "cents": 4883,
      "den": 4884,
      "due": 4885,
      "flex": 4886,
      "ira": 4887,
      "pét": 4888,
      "él": 4889,
      "##ham": 4890,
      "##ël": 4891,
      "##ending": 4892,
      "étant": 4893,
      "devriez": 4894,
      "compagn": 4895,
      "savons": 4896,
      "running": 4897,
      "Laisse": 4898,
      "chapeau": 4899,
      "fly": 4900,
      "fast": 4901,
      "pratique": 4902,
      "##aint": 4903,
      "partout": 4904,
      "soirée": 4905,
      "mentioned": 4906,
      "communautaire": 4907,
      "résultats": 4908,
      "commerce": 4909,
      "dangere": 4910,
      "dam": 4911,
      "tough": 4912,
      "##iments": 4913,
      "##ker": 4914,
      "##AR": 4915,
      "réalité": 4916,
      "adm": 4917,
      "poss": 4918,
      "clothes": 4919,
      "##ortez": 4920,
      "écoute": 4921,
      "tomber": 4922,
      "acheter": 4923,
      "popul": 4924,
      "Bur": 4925,
      "honneur": 4926,
      "élé": 4927,
      "##ium": 4928,
      "##line": 4929,
      "chien": 4930,
      "mobil": 4931,
      "##acun": 4932,
      "certainement": 4933,
      "visit": 4934,
      "éval": 4935,
      "responsible": 4936,
      "caf": 4937,
      "appeler": 4938,
      "améliorer": 4939,
      "14": 4940,
      "Could": 4941,
      "stri": 4942,
      "réuss": 4943,
      "offre": 4944,
      "regulation": 4945,
      "laissé": 4946,
      "possibilité": 4947,
      "midi": 4948,
      "Michael": 4949,
      "Aunt": 4950,
      "gas": 4951,
      "##com": 4952,
      "##bo": 4953,
      "##voir": 4954,
      "##ON": 4955,
      "##inon": 4956,
      "grands": 4957,
      "symp": 4958,
      "Auc": 4959,
      "broad": 4960,
      "engagement": 4961,
      "'.": 4962,
      "Hol": 4963,
      "##bes": 4964,
      "qual": 4965,
      "quot": 4966,
      "meant": 4967,
      "##osov": 4968,
      "attitude": 4969,
      "ourselves": 4970,
      "envis": 4971,
      "déje": 4972,
      "clean": 4973,
      "##ièmement": 4974,
      "Gee": 4975,
      "balance": 4976,
      "American": 4977,
      "straight": 4978,
      "meurtre": 4979,
      "extrême": 4980,
      "Okay": 4981,
      "##wood": 4982,
      "##ript": 4983,
      "##uelle": 4984,
      "jobs": 4985,
      "extremely": 4986,
      "Conn": 4987,
      "sinc": 4988,
      "##pir": 4989,
      "##ède": 4990,
      "##utenant": 4991,
      "facile": 4992,
      "exac": 4993,
      "surv": 4994,
      "period": 4995,
      "create": 4996,
      "mission": 4997,
      "behalf": 4998,
      "Danny": 4999,
      "absolute": 5000,
      "ble": 5001,
      "rou": 5002,
      "squ": 5003,
      "##ico": 5004,
      "venue": 5005,
      "mett": 5006,
      "utiliser": 5007,
      "potent": 5008,
      "dormir": 5009,
      "pen": 5010,
      "##arr": 5011,
      "##accept": 5012,
      "relig": 5013,
      "regarde": 5014,
      "fundamental": 5015,
      "intérêts": 5016,
      "environmental": 5017,
      "Kosov": 5018,
      "Like": 5019,
      "Since": 5020,
      "Jeff": 5021,
      "several": 5022,
      "parfois": 5023,
      "##ims": 5024,
      "attra": 5025,
      "dernières": 5026,
      "arrête": 5027,
      "playing": 5028,
      "funds": 5029,
      "following": 5030,
      "fully": 5031,
      "essayer": 5032,
      "titre": 5033,
      "US": 5034,
      "foc": 5035,
      "##uation": 5036,
      "##ME": 5037,
      "estime": 5038,
      "Enc": 5039,
      "réglement": 5040,
      "Désolé": 5041,
      "gam": 5042,
      "honn": 5043,
      "pou": 5044,
      "rom": 5045,
      "##ino": 5046,
      "##ached": 5047,
      "remind": 5048,
      "relative": 5049,
      "Juste": 5050,
      "Charles": 5051,
      "total": 5052,
      "ressources": 5053,
      "compromis": 5054,
      "vit": 5055,
      "##ège": 5056,
      "##nelle": 5057,
      "plenty": 5058,
      "avail": 5059,
      "nobody": 5060,
      "##abor": 5061,
      "ferait": 5062,
      "assure": 5063,
      "box": 5064,
      "économiques": 5065,
      "crucial": 5066,
      "employment": 5067,
      "projets": 5068,
      "conclusion": 5069,
      "Majesty": 5070,
      "organisations": 5071,
      "croissance": 5072,
      "déjeun": 5073,
      "bonnes": 5074,
      "##rét": 5075,
      "##rict": 5076,
      "##lot": 5077,
      "##oncer": 5078,
      "marche": 5079,
      "committee": 5080,
      "minim": 5081,
      "scène": 5082,
      "members": 5083,
      "danse": 5084,
      "Fe": 5085,
      "Ke": 5086,
      "fish": 5087,
      "##itaire": 5088,
      "white": 5089,
      "##idemment": 5090,
      "spir": 5091,
      "succès": 5092,
      "juge": 5093,
      "Finally": 5094,
      "nour": 5095,
      "wall": 5096,
      "##gré": 5097,
      "##lam": 5098,
      "##joy": 5099,
      "sell": 5100,
      "##issed": 5101,
      "différents": 5102,
      "gâ": 5103,
      "beat": 5104,
      "price": 5105,
      "##auff": 5106,
      "agenda": 5107,
      "autom": 5108,
      "décisions": 5109,
      "Constitution": 5110,
      "empêcher": 5111,
      "calling": 5112,
      "présenter": 5113,
      "nécessaires": 5114,
      "results": 5115,
      "retrouver": 5116,
      "spécif": 5117,
      "Smith": 5118,
      "Donnez": 5119,
      "laugh": 5120,
      "Carl": 5121,
      "El": 5122,
      "Vas": 5123,
      "vill": 5124,
      "##atic": 5125,
      "lequel": 5126,
      "##istan": 5127,
      "##ifique": 5128,
      "objet": 5129,
      "loved": 5130,
      "relation": 5131,
      "feeling": 5132,
      "condam": 5133,
      "volonté": 5134,
      "collabor": 5135,
      "Turkey": 5136,
      "24": 5137,
      "méc": 5138,
      "méd": 5139,
      "tém": 5140,
      "##phe": 5141,
      "deli": 5142,
      "##ason": 5143,
      "monter": 5144,
      "réjou": 5145,
      "worse": 5146,
      "consc": 5147,
      "groupes": 5148,
      "euros": 5149,
      "including": 5150,
      "immédiate": 5151,
      "hotel": 5152,
      "##iennes": 5153,
      "##estin": 5154,
      "marriage": 5155,
      "propres": 5156,
      "##aster": 5157,
      "petits": 5158,
      "speaking": 5159,
      "##érif": 5160,
      "musique": 5161,
      "occuper": 5162,
      "observ": 5163,
      "global": 5164,
      "Bo": 5165,
      "Mont": 5166,
      "Nos": 5167,
      "died": 5168,
      "##pes": 5169,
      "##enci": 5170,
      "ones": 5171,
      "parag": 5172,
      "##issent": 5173,
      "franç": 5174,
      "hasn": 5175,
      "awful": 5176,
      "malade": 5177,
      "capital": 5178,
      "généra": 5179,
      "discussions": 5180,
      "journée": 5181,
      "pleased": 5182,
      "élargissement": 5183,
      "aurez": 5184,
      "earth": 5185,
      "##agé": 5186,
      "##oyer": 5187,
      "##akes": 5188,
      "assass": 5189,
      "inside": 5190,
      "majority": 5191,
      "private": 5192,
      "correct": 5193,
      "cigaret": 5194,
      "concurrence": 5195,
      "Acc": 5196,
      "Count": 5197,
      "Sud": 5198,
      "sauv": 5199,
      "##ionn": 5200,
      "neck": 5201,
      "##olf": 5202,
      "chair": 5203,
      "fear": 5204,
      "##artment": 5205,
      "happens": 5206,
      "busy": 5207,
      "réfléch": 5208,
      "lorsque": 5209,
      "calme": 5210,
      "border": 5211,
      "subsid": 5212,
      "période": 5213,
      "Kosovo": 5214,
      "\"?": 5215,
      "Tod": 5216,
      "wed": 5217,
      "décidé": 5218,
      "aimez": 5219,
      "education": 5220,
      "##iant": 5221,
      "##to": 5222,
      "##ball": 5223,
      "##tesse": 5224,
      "divers": 5225,
      "recent": 5226,
      "internal": 5227,
      "apprendre": 5228,
      "bénéfic": 5229,
      "THE": 5230,
      "pare": 5231,
      "##ring": 5232,
      "##cent": 5233,
      "enqu": 5234,
      "hair": 5235,
      "##endent": 5236,
      "sun": 5237,
      "weak": 5238,
      "##agues": 5239,
      "Quoi": 5240,
      "absolument": 5241,
      "local": 5242,
      "ridic": 5243,
      "lumière": 5244,
      "writing": 5245,
      "early": 5246,
      "tired": 5247,
      "suit": 5248,
      "##issant": 5249,
      "accès": 5250,
      "express": 5251,
      "Therefore": 5252,
      "faute": 5253,
      "aimes": 5254,
      "nombreuses": 5255,
      "mistake": 5256,
      "spectacle": 5257,
      "Cle": 5258,
      "Jenny": 5259,
      "Tar": 5260,
      "ligne": 5261,
      "tante": 5262,
      "plain": 5263,
      "feet": 5264,
      "marier": 5265,
      "prec": 5266,
      "Intern": 5267,
      "obtenir": 5268,
      "visant": 5269,
      "decisions": 5270,
      "défense": 5271,
      "standards": 5272,
      "jolie": 5273,
      "Lisbon": 5274,
      "Paul": 5275,
      "hundred": 5276,
      "internationale": 5277,
      "Cent": 5278,
      "##rice": 5279,
      "##èque": 5280,
      "##anch": 5281,
      "laissez": 5282,
      "prise": 5283,
      "choix": 5284,
      "##issons": 5285,
      "mondi": 5286,
      "##osed": 5287,
      "seeing": 5288,
      "finir": 5289,
      "club": 5290,
      "travaille": 5291,
      "visite": 5292,
      "##érique": 5293,
      "suffer": 5294,
      "souviens": 5295,
      "francs": 5296,
      "Encore": 5297,
      "Ici": 5298,
      "orient": 5299,
      "rule": 5300,
      "##lt": 5301,
      "##erves": 5302,
      "ded": 5303,
      "quality": 5304,
      "adap": 5305,
      "consult": 5306,
      "Franc": 5307,
      "bonheur": 5308,
      "espér": 5309,
      "espoir": 5310,
      "2007": 5311,
      "solutions": 5312,
      "petites": 5313,
      "objective": 5314,
      "domaines": 5315,
      "suffit": 5316,
      "majorité": 5317,
      "##ola": 5318,
      "##nez": 5319,
      "arms": 5320,
      "##iled": 5321,
      "##ized": 5322,
      "connaît": 5323,
      "Second": 5324,
      "##acceptable": 5325,
      "Emp": 5326,
      "Tiens": 5327,
      "ciel": 5328,
      "lar": 5329,
      "##mas": 5330,
      "##ban": 5331,
      "parlez": 5332,
      "held": 5333,
      "states": 5334,
      "améric": 5335,
      "intervention": 5336,
      "faudra": 5337,
      "16": 5338,
      "Lind": 5339,
      "band": 5340,
      "pire": 5341,
      "##ken": 5342,
      "##light": 5343,
      "##ettre": 5344,
      "##ids": 5345,
      "danser": 5346,
      "##oche": 5347,
      "China": 5348,
      "obst": 5349,
      "emph": 5350,
      "sometimes": 5351,
      "reports": 5352,
      "connaître": 5353,
      "strange": 5354,
      "cases": 5355,
      "##argement": 5356,
      "changement": 5357,
      "démocratique": 5358,
      "Lisbonne": 5359,
      "robe": 5360,
      "Dor": 5361,
      "magn": 5362,
      "##rou": 5363,
      "##ieuse": 5364,
      "##ols": 5365,
      "sea": 5366,
      "avaient": 5367,
      "above": 5368,
      "travailleurs": 5369,
      "prochain": 5370,
      "déclaration": 5371,
      "Blackie": 5372,
      "discrimination": 5373,
      "Ara": 5374,
      "rue": 5375,
      "##ruction": 5376,
      "EUR": 5377,
      "implementation": 5378,
      "financement": 5379,
      "various": 5380,
      "##lish": 5381,
      "##20": 5382,
      "##ades": 5383,
      "##resh": 5384,
      "détermin": 5385,
      "propri": 5386,
      "importants": 5387,
      "workers": 5388,
      "##assé": 5389,
      "spee": 5390,
      "départ": 5391,
      "essaie": 5392,
      "drunk": 5393,
      "dirai": 5394,
      "rencontrer": 5395,
      "completely": 5396,
      "déjeuner": 5397,
      "Has": 5398,
      "Ret": 5399,
      "Uh": 5400,
      "cach": 5401,
      "custom": 5402,
      "##aur": 5403,
      "##kins": 5404,
      "##vis": 5405,
      "deep": 5406,
      "rejet": 5407,
      "sustain": 5408,
      "clar": 5409,
      "Prenez": 5410,
      "scand": 5411,
      "visage": 5412,
      "##iano": 5413,
      "Art": 5414,
      "protéger": 5415,
      "Sel": 5416,
      "gives": 5417,
      "##stairs": 5418,
      "##utile": 5419,
      "enjoy": 5420,
      "##raine": 5421,
      "conseil": 5422,
      "avo": 5423,
      "dise": 5424,
      "##though": 5425,
      "##lande": 5426,
      "personnel": 5427,
      "##ledge": 5428,
      "groups": 5429,
      "envoyer": 5430,
      "conclusions": 5431,
      "influence": 5432,
      "Bob": 5433,
      "Dra": 5434,
      "Port": 5435,
      "oncle": 5436,
      "##quent": 5437,
      "alive": 5438,
      "tomb": 5439,
      "compromise": 5440,
      "exception": 5441,
      "guarantee": 5442,
      "\",": 5443,
      "Tony": 5444,
      "dark": 5445,
      "heav": 5446,
      "trick": 5447,
      "soyez": 5448,
      "Ceci": 5449,
      "record": 5450,
      "indic": 5451,
      "Goodbye": 5452,
      "absence": 5453,
      "Turquie": 5454,
      "Regarde": 5455,
      "purp": 5456,
      "rappeler": 5457,
      "conscience": 5458,
      "lune": 5459,
      "##uie": 5460,
      "##fast": 5461,
      "##once": 5462,
      "parmi": 5463,
      "##auche": 5464,
      "##ventions": 5465,
      "simpl": 5466,
      "engage": 5467,
      "honte": 5468,
      "banque": 5469,
      "Everything": 5470,
      "available": 5471,
      "Lu": 5472,
      "fête": 5473,
      "##uler": 5474,
      "allé": 5475,
      "complex": 5476,
      "Ins": 5477,
      "occupe": 5478,
      "utilisation": 5479,
      "appris": 5480,
      "ensuite": 5481,
      "limit": 5482,
      "competition": 5483,
      "dangerous": 5484,
      "establish": 5485,
      "tranqu": 5486,
      "Avant": 5487,
      "cous": 5488,
      "oil": 5489,
      "pan": 5490,
      "##ead": 5491,
      "##oulez": 5492,
      "##icking": 5493,
      "Nobody": 5494,
      "mauvaise": 5495,
      "London": 5496,
      "Aff": 5497,
      "gestion": 5498,
      "mass": 5499,
      "##wd": 5500,
      "##ories": 5501,
      "cell": 5502,
      "chances": 5503,
      "##angé": 5504,
      "complè": 5505,
      "instead": 5506,
      "essayé": 5507,
      "practice": 5508,
      "commercial": 5509,
      "ennuis": 5510,
      "radio": 5511,
      "Trois": 5512,
      "General": 5513,
      "Allem": 5514,
      "West": 5515,
      "vir": 5516,
      "worked": 5517,
      "indis": 5518,
      "Make": 5519,
      "essentie": 5520,
      "initiatives": 5521,
      "pleasure": 5522,
      "Helen": 5523,
      "17": 5524,
      "Eur": 5525,
      "Peter": 5526,
      "gang": 5527,
      "low": 5528,
      "##lure": 5529,
      "##iling": 5530,
      "Last": 5531,
      "blow": 5532,
      "servir": 5533,
      "constitution": 5534,
      "capable": 5535,
      "floor": 5536,
      "désolé": 5537,
      "drive": 5538,
      "currently": 5539,
      "conflict": 5540,
      "données": 5541,
      "Bud": 5542,
      "Là": 5543,
      "gro": 5544,
      "kept": 5545,
      "normes": 5546,
      "##iés": 5547,
      "##ury": 5548,
      "##inger": 5549,
      "mond": 5550,
      "sommet": 5551,
      "courant": 5552,
      "becom": 5553,
      "exclus": 5554,
      "self": 5555,
      "administrat": 5556,
      "café": 5557,
      "MI": 5558,
      "Nations": 5559,
      "Ter": 5560,
      "bons": 5561,
      "cert": 5562,
      "simil": 5563,
      "##anm": 5564,
      "##urch": 5565,
      "##ilt": 5566,
      "sept": 5567,
      "##uls": 5568,
      "Aujourd": 5569,
      "réforme": 5570,
      "représente": 5571,
      "échapp": 5572,
      "envoyé": 5573,
      "immigration": 5574,
      ",\"": 5575,
      "Kar": 5576,
      "Lad": 5577,
      "Ren": 5578,
      "round": 5579,
      "##ening": 5580,
      "ine": 5581,
      "##cture": 5582,
      "faim": 5583,
      "wear": 5584,
      "##ests": 5585,
      "Chin": 5586,
      "dépend": 5587,
      "##issements": 5588,
      "penses": 5589,
      "regarder": 5590,
      "professeur": 5591,
      "legisl": 5592,
      "phone": 5593,
      "voter": 5594,
      "##ît": 5595,
      "##enons": 5596,
      "quitt": 5597,
      "envers": 5598,
      "resol": 5599,
      "ground": 5600,
      "ador": 5601,
      "accus": 5602,
      "posit": 5603,
      "supplément": 5604,
      "rapports": 5605,
      "arrange": 5606,
      "souligner": 5607,
      "growth": 5608,
      "coordination": 5609,
      "Professor": 5610,
      "amoureux": 5611,
      "Mademoiselle": 5612,
      "Kid": 5613,
      "Kay": 5614,
      "oe": 5615,
      "##alle": 5616,
      "##bac": 5617,
      "conne": 5618,
      "apply": 5619,
      "##amed": 5620,
      "contrô": 5621,
      "nationaux": 5622,
      "immédiatement": 5623,
      "Mike": 5624,
      "gaz": 5625,
      "silly": 5626,
      "##arian": 5627,
      "##urb": 5628,
      "unif": 5629,
      "lesque": 5630,
      "##acer": 5631,
      "partis": 5632,
      "##ored": 5633,
      "Chine": 5634,
      "obvious": 5635,
      "Stop": 5636,
      "publique": 5637,
      "emplois": 5638,
      "Sorry": 5639,
      "Voulez": 5640,
      "bull": 5641,
      "hos": 5642,
      "vert": 5643,
      "reven": 5644,
      "##verse": 5645,
      "exéc": 5646,
      "corresp": 5647,
      "sentiment": 5648,
      "création": 5649,
      "différentes": 5650,
      "climate": 5651,
      "pardon": 5652,
      "increasing": 5653,
      "Something": 5654,
      "benefit": 5655,
      "Government": 5656,
      "Ve": 5657,
      "ways": 5658,
      "##atory": 5659,
      "##cement": 5660,
      "##idge": 5661,
      "convention": 5662,
      "exig": 5663,
      "amount": 5664,
      "devait": 5665,
      "compli": 5666,
      "Inc": 5667,
      "##ouvert": 5668,
      "Scot": 5669,
      "participation": 5670,
      "##ublic": 5671,
      "prepared": 5672,
      "immediately": 5673,
      "enlargement": 5674,
      "Lily": 5675,
      "##field": 5676,
      "##onter": 5677,
      "##ison": 5678,
      "##alous": 5679,
      "sex": 5680,
      "chaud": 5681,
      "suc": 5682,
      "regions": 5683,
      "égalité": 5684,
      "invite": 5685,
      "idées": 5686,
      "paie": 5687,
      "fortune": 5688,
      "piece": 5689,
      "expérience": 5690,
      "inquiét": 5691,
      "tick": 5692,
      "##right": 5693,
      "##gest": 5694,
      "##iture": 5695,
      "indi": 5696,
      "uns": 5697,
      "##amb": 5698,
      "alco": 5699,
      "somme": 5700,
      "class": 5701,
      "voice": 5702,
      "affe": 5703,
      "promis": 5704,
      "tombe": 5705,
      "turned": 5706,
      "langu": 5707,
      "Colonel": 5708,
      "dedans": 5709,
      "emphas": 5710,
      "Ben": 5711,
      "ring": 5712,
      "vendre": 5713,
      "wit": 5714,
      "##aque": 5715,
      "##uy": 5716,
      "##pap": 5717,
      "##erver": 5718,
      "neigh": 5719,
      "forg": 5720,
      "log": 5721,
      "école": 5722,
      "inspe": 5723,
      "promised": 5724,
      "glass": 5725,
      "épouse": 5726,
      "history": 5727,
      "perform": 5728,
      "armée": 5729,
      "assistance": 5730,
      "renforcer": 5731,
      "innocent": 5732,
      "extrêmement": 5733,
      "Bab": 5734,
      "Gard": 5735,
      "Ol": 5736,
      "element": 5737,
      "noir": 5738,
      "pén": 5739,
      "warm": 5740,
      "##ped": 5741,
      "##rage": 5742,
      "livre": 5743,
      "rév": 5744,
      "##ouvé": 5745,
      "valeur": 5746,
      "draft": 5747,
      "détru": 5748,
      "English": 5749,
      "##anmoins": 5750,
      "Tim": 5751,
      "fre": 5752,
      "##ki": 5753,
      "##oux": 5754,
      "##atifs": 5755,
      "##atural": 5756,
      "estim": 5757,
      "ash": 5758,
      "amus": 5759,
      "écou": 5760,
      "caract": 5761,
      "script": 5762,
      "indép": 5763,
      "réunion": 5764,
      "dossi": 5765,
      "procedure": 5766,
      "tient": 5767,
      "##IS": 5768,
      "##eren": 5769,
      "##ares": 5770,
      "Env": 5771,
      "finish": 5772,
      "sport": 5773,
      "orders": 5774,
      "reading": 5775,
      "Steph": 5776,
      "companies": 5777,
      "England": 5778,
      "éléments": 5779,
      "Ro": 5780,
      "##han": 5781,
      "unan": 5782,
      "##aisse": 5783,
      "##olée": 5784,
      "sudd": 5785,
      "moon": 5786,
      "stabilité": 5787,
      "déce": 5788,
      "shop": 5789,
      "réve": 5790,
      "##rated": 5791,
      "papers": 5792,
      "personal": 5793,
      "transparence": 5794,
      "rêve": 5795,
      "target": 5796,
      "mécan": 5797,
      "Dick": 5798,
      "War": 5799,
      "##cs": 5800,
      "##zan": 5801,
      "##AC": 5802,
      "##igu": 5803,
      "places": 5804,
      "##elt": 5805,
      "coin": 5806,
      "coat": 5807,
      "cover": 5808,
      "permis": 5809,
      "insist": 5810,
      "pouvais": 5811,
      "Commun": 5812,
      "principes": 5813,
      "##érable": 5814,
      "Minister": 5815,
      "statement": 5816,
      "animal": 5817,
      "street": 5818,
      "##igueur": 5819,
      "Pardon": 5820,
      "sudden": 5821,
      "Gre": 5822,
      "lire": 5823,
      "pose": 5824,
      "enle": 5825,
      "##istic": 5826,
      "aimé": 5827,
      "raise": 5828,
      "sûre": 5829,
      "procès": 5830,
      "Harry": 5831,
      "##lève": 5832,
      "champagne": 5833,
      "analys": 5834,
      "Dès": 5835,
      "Fund": 5836,
      "bird": 5837,
      "os": 5838,
      "éducation": 5839,
      "##gal": 5840,
      "##fs": 5841,
      "enne": 5842,
      "##osé": 5843,
      "brû": 5844,
      "offrir": 5845,
      "confidence": 5846,
      "régime": 5847,
      "regards": 5848,
      "agricultural": 5849,
      "interesting": 5850,
      "sauver": 5851,
      "Swed": 5852,
      "Annie": 5853,
      "received": 5854,
      "British": 5855,
      "correspond": 5856,
      "Kang": 5857,
      "ay": 5858,
      "har": 5859,
      "##erait": 5860,
      "quart": 5861,
      "##riv": 5862,
      "longue": 5863,
      "reconna": 5864,
      "drop": 5865,
      "époque": 5866,
      "##clear": 5867,
      "élections": 5868,
      "fisc": 5869,
      "America": 5870,
      "exercice": 5871,
      "arrivée": 5872,
      "absolutely": 5873,
      "AC": 5874,
      "da": 5875,
      "eight": 5876,
      "sad": 5877,
      "##ran": 5878,
      "##iew": 5879,
      "##ctors": 5880,
      "prove": 5881,
      "station": 5882,
      "partage": 5883,
      "board": 5884,
      "pouvait": 5885,
      "ideas": 5886,
      "rendez": 5887,
      "brave": 5888,
      "context": 5889,
      "forgotten": 5890,
      "Robert": 5891,
      "Amendment": 5892,
      "vital": 5893,
      "##cus": 5894,
      "##cast": 5895,
      "##être": 5896,
      "##lla": 5897,
      "meurt": 5898,
      "chacun": 5899,
      "avance": 5900,
      "armes": 5901,
      "demi": 5902,
      "works": 5903,
      "derniers": 5904,
      "developing": 5905,
      "significant": 5906,
      "300": 5907,
      "Jap": 5908,
      "##sy": 5909,
      "##wise": 5910,
      "##clé": 5911,
      "##icles": 5912,
      "enem": 5913,
      "pron": 5914,
      "prenez": 5915,
      "##ago": 5916,
      "auriez": 5917,
      "connu": 5918,
      "médi": 5919,
      "Permettez": 5920,
      "encourage": 5921,
      "Majesté": 5922,
      "window": 5923,
      "arrest": 5924,
      "médecin": 5925,
      "exactement": 5926,
      "Today": 5927,
      "##rich": 5928,
      "##cut": 5929,
      "##bon": 5930,
      "##erely": 5931,
      "asse": 5932,
      "poser": 5933,
      "Entre": 5934,
      "##ormais": 5935,
      "Shall": 5936,
      "considér": 5937,
      "Gar": 5938,
      "Lar": 5939,
      "Little": 5940,
      "Nor": 5941,
      "Uk": 5942,
      "fen": 5943,
      "sœur": 5944,
      "tur": 5945,
      "âge": 5946,
      "##mn": 5947,
      "##chan": 5948,
      "chap": 5949,
      "##cious": 5950,
      "altern": 5951,
      "ouver": 5952,
      "entrée": 5953,
      "install": 5954,
      "patient": 5955,
      "supposed": 5956,
      "circum": 5957,
      "prêts": 5958,
      "regional": 5959,
      "Écoutez": 5960,
      "wedding": 5961,
      "gal": 5962,
      "tiers": 5963,
      "##gue": 5964,
      "##oned": 5965,
      "lack": 5966,
      "##cip": 5967,
      "réussi": 5968,
      "##oyons": 5969,
      "looked": 5970,
      "blanc": 5971,
      "responsable": 5972,
      "profit": 5973,
      "smart": 5974,
      "changes": 5975,
      "achieved": 5976,
      "battre": 5977,
      "Prem": 5978,
      "consequ": 5979,
      "Lib": 5980,
      "Res": 5981,
      "nor": 5982,
      "session": 5983,
      "##mé": 5984,
      "##how": 5985,
      "##bb": 5986,
      "##ishing": 5987,
      "##igg": 5988,
      "haute": 5989,
      "##ured": 5990,
      "aud": 5991,
      "grandes": 5992,
      "travaill": 5993,
      "horrible": 5994,
      "taxi": 5995,
      "sauf": 5996,
      "##diction": 5997,
      "mérite": 5998,
      "fasse": 5999,
      "##éder": 6000,
      "##lais": 6001,
      "##uts": 6002,
      "lay": 6003,
      "army": 6004,
      "partner": 6005,
      "finally": 6006,
      "Remember": 6007,
      "suivi": 6008,
      "value": 6009,
      "fianc": 6010,
      "Sy": 6011,
      "fant": 6012,
      "fleurs": 6013,
      "oct": 6014,
      "##heless": 6015,
      "avoc": 6016,
      "sale": 6017,
      "age": 6018,
      "##vaux": 6019,
      "spot": 6020,
      "method": 6021,
      "Marie": 6022,
      "difference": 6023,
      "Span": 6024,
      "inquiè": 6025,
      "perspective": 6026,
      "21": 6027,
      "Tou": 6028,
      "Ted": 6029,
      "UN": 6030,
      "bother": 6031,
      "fier": 6032,
      "##éh": 6033,
      "fright": 6034,
      "permettez": 6035,
      "expression": 6036,
      "telles": 6037,
      "calls": 6038,
      "sûrement": 6039,
      "careful": 6040,
      "Duke": 6041,
      "totalement": 6042,
      "contexte": 6043,
      "judic": 6044,
      "pieds": 6045,
      "waste": 6046,
      "PL": 6047,
      "Wor": 6048,
      "fus": 6049,
      "lu": 6050,
      "ult": 6051,
      "##ctement": 6052,
      "##ko": 6053,
      "proud": 6054,
      "chans": 6055,
      "agreed": 6056,
      "seras": 6057,
      "##labor": 6058,
      "##onné": 6059,
      "##used": 6060,
      "##rug": 6061,
      "refus": 6062,
      "review": 6063,
      "##reté": 6064,
      "évidemment": 6065,
      "lorsqu": 6066,
      "élect": 6067,
      "embr": 6068,
      "gagné": 6069,
      "evidence": 6070,
      "modern": 6071,
      "utile": 6072,
      "Dave": 6073,
      "Got": 6074,
      "fle": 6075,
      "sche": 6076,
      "##hib": 6077,
      "##itations": 6078,
      "pars": 6079,
      "celles": 6080,
      "##ulgar": 6081,
      "avions": 6082,
      "salle": 6083,
      "maxim": 6084,
      "chevaux": 6085,
      "importantes": 6086,
      "carried": 6087,
      "produit": 6088,
      "évident": 6089,
      "Aren": 6090,
      "Inde": 6091,
      "étrange": 6092,
      "réellement": 6093,
      "Highness": 6094,
      "Jac": 6095,
      "Jane": 6096,
      "Mer": 6097,
      "coun": 6098,
      "pert": 6099,
      "vra": 6100,
      "##set": 6101,
      "##uge": 6102,
      "##onte": 6103,
      "##anny": 6104,
      "repe": 6105,
      "whose": 6106,
      "##osh": 6107,
      "##isson": 6108,
      "veiller": 6109,
      "arme": 6110,
      "##umer": 6111,
      "présence": 6112,
      "##mettre": 6113,
      "troisième": 6114,
      "Bring": 6115,
      "destroy": 6116,
      "##ariat": 6117,
      "commencé": 6118,
      "military": 6119,
      "Francis": 6120,
      "Ecoute": 6121,
      "South": 6122,
      "Vos": 6123,
      "list": 6124,
      "morte": 6125,
      "sitting": 6126,
      "zone": 6127,
      "##dam": 6128,
      "##ût": 6129,
      "##leg": 6130,
      "whis": 6131,
      "pourtant": 6132,
      "##osing": 6133,
      "shut": 6134,
      "marcher": 6135,
      "accue": 6136,
      "discuter": 6137,
      "##ugg": 6138,
      "objectives": 6139,
      "crains": 6140,
      "distrib": 6141,
      "fighting": 6142,
      "attemp": 6143,
      "ambit": 6144,
      "coffee": 6145,
      "Martin": 6146,
      "Aust": 6147,
      "June": 6148,
      "Sad": 6149,
      "born": 6150,
      "data": 6151,
      "##elez": 6152,
      "##ania": 6153,
      "seven": 6154,
      "allait": 6155,
      "##ift": 6156,
      "touche": 6157,
      "coupable": 6158,
      "People": 6159,
      "honour": 6160,
      "élev": 6161,
      "funding": 6162,
      "Londres": 6163,
      "experience": 6164,
      "Honor": 6165,
      "machine": 6166,
      "27": 6167,
      "60": 6168,
      "Ken": 6169,
      "weren": 6170,
      "##aille": 6171,
      "autour": 6172,
      "mustn": 6173,
      "respecter": 6174,
      "morts": 6175,
      "renv": 6176,
      "adopté": 6177,
      "urgence": 6178,
      "existence": 6179,
      "obligations": 6180,
      "priority": 6181,
      "##mitted": 6182,
      "opposition": 6183,
      "innovation": 6184,
      "Bas": 6185,
      "Must": 6186,
      "cast": 6187,
      "cuis": 6188,
      "net": 6189,
      "##ilty": 6190,
      "Think": 6191,
      "coeur": 6192,
      "##iaire": 6193,
      "accro": 6194,
      "perman": 6195,
      "Anna": 6196,
      "Donc": 6197,
      "Before": 6198,
      "##auté": 6199,
      "évé": 6200,
      "##ighted": 6201,
      "Ess": 6202,
      "costs": 6203,
      "victimes": 6204,
      "newspap": 6205,
      "exprim": 6206,
      "dimension": 6207,
      "village": 6208,
      "écouter": 6209,
      "firm": 6210,
      "riche": 6211,
      "âme": 6212,
      "##ked": 6213,
      "bear": 6214,
      "fault": 6215,
      "prim": 6216,
      "##ender": 6217,
      "##terre": 6218,
      "##uels": 6219,
      "export": 6220,
      "##sels": 6221,
      "accords": 6222,
      "comprend": 6223,
      "faisait": 6224,
      "realize": 6225,
      "histor": 6226,
      "retourner": 6227,
      "seriously": 6228,
      "animaux": 6229,
      "uniquement": 6230,
      "faudrait": 6231,
      "individual": 6232,
      "horses": 6233,
      "circumst": 6234,
      "felt": 6235,
      "##anie": 6236,
      "rejo": 6237,
      "reached": 6238,
      "prête": 6239,
      "avion": 6240,
      "manif": 6241,
      "rail": 6242,
      "dipl": 6243,
      "##ouvrir": 6244,
      "##ception": 6245,
      "##ommage": 6246,
      "Didn": 6247,
      "stupid": 6248,
      "rout": 6249,
      "roy": 6250,
      "rendu": 6251,
      "##iest": 6252,
      "##olid": 6253,
      "whatever": 6254,
      "lock": 6255,
      "##ordin": 6256,
      "faits": 6257,
      "##oking": 6258,
      "compar": 6259,
      "finished": 6260,
      "maintain": 6261,
      "nuclé": 6262,
      "résol": 6263,
      "mener": 6264,
      "Celui": 6265,
      "durable": 6266,
      "investig": 6267,
      "tenu": 6268,
      "Iran": 6269,
      "documents": 6270,
      "fisher": 6271,
      "solidarité": 6272,
      "téléphone": 6273,
      "Ainsi": 6274,
      "Und": 6275,
      "ho": 6276,
      "mouth": 6277,
      "rate": 6278,
      "##dom": 6279,
      "##OR": 6280,
      "##SE": 6281,
      "##lli": 6282,
      "fab": 6283,
      "parvenir": 6284,
      "chers": 6285,
      "management": 6286,
      "##astro": 6287,
      "minist": 6288,
      "carte": 6289,
      "raised": 6290,
      "promote": 6291,
      "capt": 6292,
      "organisation": 6293,
      "principles": 6294,
      "appelé": 6295,
      "investment": 6296,
      "conséquences": 6297,
      "lucky": 6298,
      "ouvrir": 6299,
      "congratulate": 6300,
      "Bes": 6301,
      "City": 6302,
      "Emm": 6303,
      "lat": 6304,
      "lic": 6305,
      "sme": 6306,
      "élément": 6307,
      "élabor": 6308,
      "##eurs": 6309,
      "##ems": 6310,
      "##leterre": 6311,
      "##rale": 6312,
      "adore": 6313,
      "thinks": 6314,
      "brit": 6315,
      "##iction": 6316,
      "Love": 6317,
      "Angleterre": 6318,
      "froid": 6319,
      "consumers": 6320,
      "merveilleux": 6321,
      "Office": 6322,
      "Bla": 6323,
      "Kim": 6324,
      "Lors": 6325,
      "Lady": 6326,
      "Sun": 6327,
      "Such": 6328,
      "gor": 6329,
      "vigueur": 6330,
      "deta": 6331,
      "##cier": 6332,
      "knock": 6333,
      "valeurs": 6334,
      "certaine": 6335,
      "greatest": 6336,
      "decide": 6337,
      "gouvernements": 6338,
      "activités": 6339,
      "féliciter": 6340,
      "projects": 6341,
      "normal": 6342,
      "soleil": 6343,
      "tranquille": 6344,
      "Ladies": 6345,
      "britann": 6346,
      "bought": 6347,
      "hide": 6348,
      "neg": 6349,
      "faith": 6350,
      "parliament": 6351,
      "chant": 6352,
      "##bling": 6353,
      "##udes": 6354,
      "race": 6355,
      "using": 6356,
      "spl": 6357,
      "assess": 6358,
      "governments": 6359,
      "joli": 6360,
      "building": 6361,
      "Certains": 6362,
      "entraî": 6363,
      "Contin": 6364,
      "solidarity": 6365,
      "focus": 6366,
      "Fer": 6367,
      "Pierre": 6368,
      "nose": 6369,
      "natural": 6370,
      "pois": 6371,
      "vête": 6372,
      "##ére": 6373,
      "##bres": 6374,
      "##yond": 6375,
      "##atoire": 6376,
      "##ourd": 6377,
      "beyond": 6378,
      "forte": 6379,
      "##chant": 6380,
      "paraît": 6381,
      "##aume": 6382,
      "##pring": 6383,
      "tradition": 6384,
      "##igné": 6385,
      "auras": 6386,
      "Prends": 6387,
      "spend": 6388,
      "Another": 6389,
      "prises": 6390,
      "Seigneur": 6391,
      "Shang": 6392,
      "adopter": 6393,
      "colleagues": 6394,
      "1999": 6395,
      "breakfast": 6396,
      "Jimmy": 6397,
      "sanctions": 6398,
      "##aturally": 6399,
      "challeng": 6400,
      "folks": 6401,
      "Linda": 6402,
      "speech": 6403,
      "Imp": 6404,
      "Mur": 6405,
      "Maman": 6406,
      "fill": 6407,
      "hung": 6408,
      "tâche": 6409,
      "##ias": 6410,
      "##èrent": 6411,
      "##inte": 6412,
      "##omen": 6413,
      "##lect": 6414,
      "##raw": 6415,
      "mechan": 6416,
      "Three": 6417,
      "##ateful": 6418,
      "master": 6419,
      "worried": 6420,
      "clé": 6421,
      "poll": 6422,
      "reviend": 6423,
      "vouloir": 6424,
      "oublie": 6425,
      "formation": 6426,
      "sacrif": 6427,
      "sépar": 6428,
      "poursuivre": 6429,
      "unanim": 6430,
      "ite": 6431,
      "##née": 6432,
      "##gin": 6433,
      "##erial": 6434,
      "##illi": 6435,
      "plup": 6436,
      "Part": 6437,
      "demonst": 6438,
      "souvenir": 6439,
      "##well": 6440,
      "Ass": 6441,
      "nuclear": 6442,
      "Joan": 6443,
      "capac": 6444,
      "Brand": 6445,
      "boulot": 6446,
      "transparency": 6447,
      "plupart": 6448,
      "Fred": 6449,
      "Tay": 6450,
      "mas": 6451,
      "rh": 6452,
      "ras": 6453,
      "##now": 6454,
      "##gu": 6455,
      "faux": 6456,
      "pourriez": 6457,
      "moving": 6458,
      "moitié": 6459,
      "tels": 6460,
      "loy": 6461,
      "appre": 6462,
      "##itten": 6463,
      "Queen": 6464,
      "hardly": 6465,
      "elections": 6466,
      "intéresse": 6467,
      "argument": 6468,
      "photo": 6469,
      "indisp": 6470,
      "circumstances": 6471,
      "Sen": 6472,
      "hyp": 6473,
      "ém": 6474,
      "##room": 6475,
      "##anda": 6476,
      "délic": 6477,
      "##acy": 6478,
      "impl": 6479,
      "hadn": 6480,
      "persu": 6481,
      "2001": 6482,
      "shows": 6483,
      "efficacité": 6484,
      "administration": 6485,
      "Supp": 6486,
      "marchés": 6487,
      "dangereux": 6488,
      "Tarzan": 6489,
      "Den": 6490,
      "pure": 6491,
      "wine": 6492,
      "wood": 6493,
      "œil": 6494,
      "chin": 6495,
      "blue": 6496,
      "putting": 6497,
      "prisonn": 6498,
      "Tex": 6499,
      "atteindre": 6500,
      "préfère": 6501,
      "réduire": 6502,
      "Darling": 6503,
      "Mid": 6504,
      "burn": 6505,
      "cade": 6506,
      "dig": 6507,
      "dough": 6508,
      "jug": 6509,
      "nerve": 6510,
      "pi": 6511,
      "hall": 6512,
      "tea": 6513,
      "teach": 6514,
      "##hern": 6515,
      "grateful": 6516,
      "bye": 6517,
      "somewhere": 6518,
      "entends": 6519,
      "guilty": 6520,
      "revient": 6521,
      "discut": 6522,
      "throughout": 6523,
      "convince": 6524,
      "Everybody": 6525,
      "financière": 6526,
      "Attendez": 6527,
      "fishing": 6528,
      "source": 6529,
      "honnête": 6530,
      "spirit": 6531,
      "Ukraine": 6532,
      "Mic": 6533,
      "Wal": 6534,
      "##car": 6535,
      "##âtre": 6536,
      "##ené": 6537,
      "lac": 6538,
      "ense": 6539,
      "willing": 6540,
      "rése": 6541,
      "frais": 6542,
      "Uncle": 6543,
      "comptes": 6544,
      "guard": 6545,
      "chem": 6546,
      "awfully": 6547,
      "Marcus": 6548,
      "joué": 6549,
      "provided": 6550,
      "nationales": 6551,
      "journaux": 6552,
      "probablement": 6553,
      "apolog": 6554,
      "blame": 6555,
      "Secondly": 6556,
      "vêtements": 6557,
      "Em": 6558,
      "Fonds": 6559,
      "diss": 6560,
      "mir": 6561,
      "none": 6562,
      "tim": 6563,
      "##aign": 6564,
      "##icient": 6565,
      "##ila": 6566,
      "##aves": 6567,
      "Amérique": 6568,
      "##érieure": 6569,
      "risques": 6570,
      "##ormed": 6571,
      "indep": 6572,
      "bureauc": 6573,
      "Hi": 6574,
      "Ira": 6575,
      "dare": 6576,
      "jail": 6577,
      "liste": 6578,
      "lying": 6579,
      "##oit": 6580,
      "pourrons": 6581,
      "chanter": 6582,
      "stru": 6583,
      "trom": 6584,
      "##acles": 6585,
      "sail": 6586,
      "##venez": 6587,
      "##ointed": 6588,
      "previous": 6589,
      "include": 6590,
      "vision": 6591,
      "presse": 6592,
      "seuls": 6593,
      "domest": 6594,
      "dispositions": 6595,
      "préparer": 6596,
      "français": 6597,
      "Allemagne": 6598,
      "EC": 6599,
      "Further": 6600,
      "Lie": 6601,
      "Med": 6602,
      "okay": 6603,
      "ran": 6604,
      "rub": 6605,
      "convers": 6606,
      "trés": 6607,
      "lies": 6608,
      "sake": 6609,
      "monitor": 6610,
      "appré": 6611,
      "trag": 6612,
      "devil": 6613,
      "accession": 6614,
      "infra": 6615,
      "dépl": 6616,
      "restrict": 6617,
      "broke": 6618,
      "volé": 6619,
      "charact": 6620,
      "précéd": 6621,
      "leaders": 6622,
      "rencontré": 6623,
      "catastro": 6624,
      "écrire": 6625,
      "Selon": 6626,
      "Call": 6627,
      "Mos": 6628,
      "Rép": 6629,
      "cow": 6630,
      "link": 6631,
      "##ini": 6632,
      "##any": 6633,
      "##orde": 6634,
      "##ica": 6635,
      "##illon": 6636,
      "desp": 6637,
      "chauff": 6638,
      "##aging": 6639,
      "stock": 6640,
      "serve": 6641,
      "##itement": 6642,
      "prefer": 6643,
      "active": 6644,
      "2003": 6645,
      "types": 6646,
      "request": 6647,
      "allowed": 6648,
      "Broad": 6649,
      "criminal": 6650,
      "Germany": 6651,
      "legislative": 6652,
      "$.": 6653,
      "bour": 6654,
      "##uly": 6655,
      "##umes": 6656,
      "##con": 6657,
      "##PE": 6658,
      "lait": 6659,
      "unless": 6660,
      "nez": 6661,
      "##osition": 6662,
      "##iences": 6663,
      "##erson": 6664,
      "travel": 6665,
      "prepar": 6666,
      "match": 6667,
      "poste": 6668,
      "promotion": 6669,
      "agreements": 6670,
      "Afrique": 6671,
      "jury": 6672,
      "ordin": 6673,
      "connaissance": 6674,
      "intégration": 6675,
      "telephone": 6676,
      "task": 6677,
      "Dut": 6678,
      "Gree": 6679,
      "Tre": 6680,
      "caught": 6681,
      "##uir": 6682,
      "##ville": 6683,
      "##oudre": 6684,
      "##read": 6685,
      "dén": 6686,
      "feed": 6687,
      "##onnez": 6688,
      "explic": 6689,
      "2008": 6690,
      "faisons": 6691,
      "rappelle": 6692,
      "systèmes": 6693,
      "frontières": 6694,
      "divorce": 6695,
      "##bourg": 6696,
      "farmers": 6697,
      "consumer": 6698,
      "original": 6699,
      "indépend": 6700,
      "Taylor": 6701,
      "Long": 6702,
      "Père": 6703,
      "cess": 6704,
      "purs": 6705,
      "pouss": 6706,
      "rot": 6707,
      "tue": 6708,
      "viennent": 6709,
      "##mage": 6710,
      "##bs": 6711,
      "##enh": 6712,
      "##itime": 6713,
      "whom": 6714,
      "prol": 6715,
      "chiff": 6716,
      "##ival": 6717,
      "acte": 6718,
      "folle": 6719,
      "systems": 6720,
      "kids": 6721,
      "values": 6722,
      "partenaires": 6723,
      "Julia": 6724,
      "exprimer": 6725,
      "budgétaire": 6726,
      "Besides": 6727,
      "Ban": 6728,
      "Mim": 6729,
      "Try": 6730,
      "dign": 6731,
      "##pte": 6732,
      "##ills": 6733,
      "pourraient": 6734,
      "##ensus": 6735,
      "serons": 6736,
      "Chaque": 6737,
      "pensons": 6738,
      "cherch": 6739,
      "Too": 6740,
      "huit": 6741,
      "critic": 6742,
      "procédures": 6743,
      "Israel": 6744,
      "avoid": 6745,
      "%.": 6746,
      "Alex": 6747,
      "Ham": 6748,
      "Hold": 6749,
      "Val": 6750,
      "fit": 6751,
      "##ios": 6752,
      "##ox": 6753,
      "##omme": 6754,
      "While": 6755,
      "proport": 6756,
      "##pector": 6757,
      "##olet": 6758,
      "regarding": 6759,
      "##ilson": 6760,
      "dirty": 6761,
      "motion": 6762,
      "référence": 6763,
      "##yeong": 6764,
      "##appy": 6765,
      "colonel": 6766,
      "Morgan": 6767,
      "Russian": 6768,
      "Phil": 6769,
      "appropriate": 6770,
      "choice": 6771,
      "pauvres": 6772,
      "surveill": 6773,
      "compagnie": 6774,
      "Larry": 6775,
      "inquiète": 6776,
      "Big": 6777,
      "Gent": 6778,
      "Ire": 6779,
      "Sil": 6780,
      "flic": 6781,
      "imb": 6782,
      "tire": 6783,
      "##vres": 6784,
      "liber": 6785,
      "avanc": 6786,
      "permission": 6787,
      "brief": 6788,
      "Mex": 6789,
      "2009": 6790,
      "régler": 6791,
      "continent": 6792,
      "Pegg": 6793,
      "sensible": 6794,
      "steps": 6795,
      "required": 6796,
      "##ibilité": 6797,
      "About": 6798,
      "Article": 6799,
      "cousin": 6800,
      "hospital": 6801,
      "Im": 6802,
      "allem": 6803,
      "merc": 6804,
      "##bly": 6805,
      "##ouer": 6806,
      "parie": 6807,
      "##andy": 6808,
      "Which": 6809,
      "maître": 6810,
      "disent": 6811,
      "##ization": 6812,
      "discours": 6813,
      "flowers": 6814,
      "désormais": 6815,
      "modèle": 6816,
      "obligation": 6817,
      "priorités": 6818,
      "##isément": 6819,
      "construction": 6820,
      "emmener": 6821,
      "transform": 6822,
      "Demain": 6823,
      "Affairs": 6824,
      "forgive": 6825,
      "appreci": 6826,
      "Gall": 6827,
      "Nord": 6828,
      "Ruth": 6829,
      "mount": 6830,
      "voi": 6831,
      "wise": 6832,
      "##arily": 6833,
      "neuf": 6834,
      "faite": 6835,
      "détes": 6836,
      "##onnable": 6837,
      "Chic": 6838,
      "créd": 6839,
      "##ormément": 6840,
      "2004": 6841,
      "flat": 6842,
      "training": 6843,
      "agricole": 6844,
      "ordres": 6845,
      "elect": 6846,
      "regrette": 6847,
      "introduction": 6848,
      "Act": 6849,
      "Spe": 6850,
      "oise": 6851,
      "rain": 6852,
      "##ousse": 6853,
      "##utation": 6854,
      "union": 6855,
      "reine": 6856,
      "##cel": 6857,
      "sup": 6858,
      "crimes": 6859,
      "##thony": 6860,
      "aurons": 6861,
      "Anthony": 6862,
      "response": 6863,
      "évo": 6864,
      "occur": 6865,
      "corr": 6866,
      "payé": 6867,
      "défendre": 6868,
      "famil": 6869,
      "standing": 6870,
      "collègue": 6871,
      "accompl": 6872,
      "##jouter": 6873,
      "##mploy": 6874,
      "silence": 6875,
      "undert": 6876,
      "Africa": 6877,
      "mondiale": 6878,
      "Cons": 6879,
      "Egy": 6880,
      "Mil": 6881,
      "bil": 6882,
      "cens": 6883,
      "mig": 6884,
      "wag": 6885,
      "faible": 6886,
      "hello": 6887,
      "liqu": 6888,
      "taux": 6889,
      "##ordon": 6890,
      "##ouvoir": 6891,
      "##aken": 6892,
      "inclus": 6893,
      "concerning": 6894,
      "played": 6895,
      "Quelque": 6896,
      "habitude": 6897,
      "échange": 6898,
      "trem": 6899,
      "extraordin": 6900,
      "Bu": 6901,
      "ON": 6902,
      "Stre": 6903,
      "Wilson": 6904,
      "aie": 6905,
      "iI": 6906,
      "rouge": 6907,
      "##lled": 6908,
      "comfort": 6909,
      "expected": 6910,
      "manteau": 6911,
      "consensus": 6912,
      "criter": 6913,
      "travaux": 6914,
      "prince": 6915,
      "libér": 6916,
      "charg": 6917,
      "critères": 6918,
      "examiner": 6919,
      "regrett": 6920,
      "terrorisme": 6921,
      "definite": 6922,
      "Dé": 6923,
      "Sher": 6924,
      "gauche": 6925,
      "lunch": 6926,
      "##ètes": 6927,
      "##onie": 6928,
      "quar": 6929,
      "##icy": 6930,
      "exch": 6931,
      "traff": 6932,
      "disais": 6933,
      "consac": 6934,
      "terrain": 6935,
      "remettre": 6936,
      "Monte": 6937,
      "keeping": 6938,
      "formul": 6939,
      "Willi": 6940,
      "considère": 6941,
      "voting": 6942,
      "Many": 6943,
      "équipe": 6944,
      "fondamentaux": 6945,
      "dépenses": 6946,
      "Ireland": 6947,
      "Bulgar": 6948,
      "Sau": 6949,
      "aér": 6950,
      "hy": 6951,
      "##night": 6952,
      "chat": 6953,
      "##rime": 6954,
      "étions": 6955,
      "appliquer": 6956,
      "##erty": 6957,
      "attent": 6958,
      "proposé": 6959,
      "résoudre": 6960,
      "Marg": 6961,
      "durant": 6962,
      "holding": 6963,
      "recommend": 6964,
      "recommand": 6965,
      "Out": 6966,
      "Sing": 6967,
      "irai": 6968,
      "joy": 6969,
      "owe": 6970,
      "rire": 6971,
      "rang": 6972,
      "sight": 6973,
      "##ford": 6974,
      "##enge": 6975,
      "thro": 6976,
      "labour": 6977,
      "moindre": 6978,
      "##aude": 6979,
      "##uellement": 6980,
      "##esses": 6981,
      "sert": 6982,
      "effets": 6983,
      "cheve": 6984,
      "remains": 6985,
      "##liff": 6986,
      "Social": 6987,
      "##landais": 6988,
      "reality": 6989,
      "centre": 6990,
      "##iliation": 6991,
      "prévu": 6992,
      "Christmas": 6993,
      "augmentation": 6994,
      "package": 6995,
      "évaluation": 6996,
      "sympath": 6997,
      "indispens": 6998,
      "Dép": 6999,
      "drug": 7000,
      "mix": 7001,
      "tél": 7002,
      "##ators": 7003,
      "remp": 7004,
      "##endum": 7005,
      "exige": 7006,
      "triste": 7007,
      "ressemble": 7008,
      "diam": 7009,
      "interpr": 7010,
      "arrived": 7011,
      "symb": 7012,
      "handle": 7013,
      "##attle": 7014,
      "Looks": 7015,
      "technical": 7016,
      "surprised": 7017,
      "langue": 7018,
      "##burg": 7019,
      "établir": 7020,
      "integration": 7021,
      "collaboration": 7022,
      "sustainable": 7023,
      "purpose": 7024,
      "diplom": 7025,
      "Eun": 7026,
      "boug": 7027,
      "cy": 7028,
      "mè": 7029,
      "path": 7030,
      "Êtes": 7031,
      "##mar": 7032,
      "##oe": 7033,
      "##roche": 7034,
      "island": 7035,
      "conqu": 7036,
      "store": 7037,
      "##uez": 7038,
      "##ifié": 7039,
      "décider": 7040,
      "Conf": 7041,
      "envoie": 7042,
      "mets": 7043,
      "Marius": 7044,
      "huge": 7045,
      "occupé": 7046,
      "directives": 7047,
      "equal": 7048,
      "livres": 7049,
      "mandat": 7050,
      "enquête": 7051,
      "Under": 7052,
      "Gordon": 7053,
      "mien": 7054,
      "vin": 7055,
      "##por": 7056,
      "##lée": 7057,
      "##isez": 7058,
      "##iting": 7059,
      "##ram": 7060,
      "##illée": 7061,
      "##pping": 7062,
      "soi": 7063,
      "taille": 7064,
      "appare": 7065,
      "trait": 7066,
      "devra": 7067,
      "compter": 7068,
      "clients": 7069,
      "goodbye": 7070,
      "captain": 7071,
      "baron": 7072,
      "central": 7073,
      "Steve": 7074,
      "trial": 7075,
      "procedures": 7076,
      "shooting": 7077,
      "Berlin": 7078,
      "minimum": 7079,
      "Spanish": 7080,
      "chanson": 7081,
      "Furthermore": 7082,
      "Cop": 7083,
      "Flor": 7084,
      "Kyeong": 7085,
      "Ros": 7086,
      "Save": 7087,
      "breat": 7088,
      "van": 7089,
      "##ax": 7090,
      "##tion": 7091,
      "##éros": 7092,
      "##onia": 7093,
      "##under": 7094,
      "allais": 7095,
      "monna": 7096,
      "agré": 7097,
      "consist": 7098,
      "brill": 7099,
      "client": 7100,
      "confir": 7101,
      "scene": 7102,
      "promouvoir": 7103,
      "talked": 7104,
      "dirais": 7105,
      "présenté": 7106,
      "model": 7107,
      "difficultés": 7108,
      "murd": 7109,
      "jump": 7110,
      "énergétique": 7111,
      "practical": 7112,
      "substant": 7113,
      "honorable": 7114,
      "perfectly": 7115,
      "precise": 7116,
      "adapt": 7117,
      "dossier": 7118,
      "avocat": 7119,
      "Mimi": 7120,
      "monnaie": 7121,
      "Great": 7122,
      "emer": 7123,
      "nic": 7124,
      "rig": 7125,
      "vend": 7126,
      "##iards": 7127,
      "##ingt": 7128,
      "lecture": 7129,
      "##oto": 7130,
      "passed": 7131,
      "prud": 7132,
      "prét": 7133,
      "proceed": 7134,
      "stability": 7135,
      "##iving": 7136,
      "amie": 7137,
      "Once": 7138,
      "spent": 7139,
      "science": 7140,
      "scared": 7141,
      "##ifications": 7142,
      "plane": 7143,
      "opening": 7144,
      "miles": 7145,
      "##ternal": 7146,
      "advice": 7147,
      "générale": 7148,
      "subsidiar": 7149,
      "Jusqu": 7150,
      "Rog": 7151,
      "pin": 7152,
      "pont": 7153,
      "##round": 7154,
      "##ceau": 7155,
      "chrét": 7156,
      "abol": 7157,
      "appliqu": 7158,
      "Unfortunately": 7159,
      "siè": 7160,
      "##hington": 7161,
      "ouvre": 7162,
      "soule": 7163,
      "secr": 7164,
      "happiness": 7165,
      "annivers": 7166,
      "menace": 7167,
      "milliers": 7168,
      "oubliez": 7169,
      "Barb": 7170,
      "paquet": 7171,
      "dollar": 7172,
      "rencontre": 7173,
      "terrorism": 7174,
      "parlons": 7175,
      "committed": 7176,
      "anti": 7177,
      "Deuxièmement": 7178,
      "étrangère": 7179,
      "Stephen": 7180,
      "consequences": 7181,
      "ME": 7182,
      "Voyons": 7183,
      "fur": 7184,
      "##ôtre": 7185,
      "##erie": 7186,
      "conde": 7187,
      "Dece": 7188,
      "confront": 7189,
      "according": 7190,
      "strict": 7191,
      "capacité": 7192,
      "markets": 7193,
      "version": 7194,
      "Anything": 7195,
      "##ghan": 7196,
      "driving": 7197,
      "spécial": 7198,
      "increased": 7199,
      "tiré": 7200,
      "entirely": 7201,
      "pleinement": 7202,
      "##hesion": 7203,
      "Texas": 7204,
      "Clar": 7205,
      "Kir": 7206,
      "Ré": 7207,
      "dyn": 7208,
      "fresh": 7209,
      "sources": 7210,
      "évent": 7211,
      "##rim": 7212,
      "##gie": 7213,
      "##zz": 7214,
      "##oué": 7215,
      "##ilos": 7216,
      "##ops": 7217,
      "doig": 7218,
      "##ands": 7219,
      "##ulf": 7220,
      "##...": 7221,
      "lived": 7222,
      "cohésion": 7223,
      "grat": 7224,
      "##cesse": 7225,
      "écout": 7226,
      "ministre": 7227,
      "Altesse": 7228,
      "malheureusement": 7229,
      "enfer": 7230,
      "broken": 7231,
      "agricul": 7232,
      "embar": 7233,
      "fallait": 7234,
      "inquié": 7235,
      "Christian": 7236,
      "World": 7237,
      "counter": 7238,
      "challenges": 7239,
      "IT": 7240,
      "Jose": 7241,
      "Mars": 7242,
      "bête": 7243,
      "##intes": 7244,
      "##ased": 7245,
      "heaven": 7246,
      "traiter": 7247,
      "écla": 7248,
      "blind": 7249,
      "##ancy": 7250,
      "insc": 7251,
      "constater": 7252,
      "requires": 7253,
      "##erred": 7254,
      "charming": 7255,
      "##raphe": 7256,
      "traitement": 7257,
      "fenêtre": 7258,
      "hungry": 7259,
      "Chicago": 7260,
      "Bre": 7261,
      "ry": 7262,
      "##uves": 7263,
      "##ènes": 7264,
      "##tective": 7265,
      "##seong": 7266,
      "saved": 7267,
      "impat": 7268,
      "##ignes": 7269,
      "afford": 7270,
      "restaur": 7271,
      "extérieur": 7272,
      "priorité": 7273,
      "recevoir": 7274,
      "Attends": 7275,
      "study": 7276,
      "books": 7277,
      "scientific": 7278,
      "2010": 7279,
      "appartient": 7280,
      "pétro": 7281,
      "Portug": 7282,
      "Lieutenant": 7283,
      "December": 7284,
      "missed": 7285,
      "wal": 7286,
      "wide": 7287,
      "##ping": 7288,
      "lever": 7289,
      "##ader": 7290,
      "bruit": 7291,
      "reconst": 7292,
      "raisonnable": 7293,
      "idé": 7294,
      "circulation": 7295,
      "delà": 7296,
      "opportunities": 7297,
      "Whitey": 7298,
      "language": 7299,
      "décembre": 7300,
      "character": 7301,
      "Buck": 7302,
      "Pan": 7303,
      "Pouvez": 7304,
      "Ram": 7305,
      "bir": 7306,
      "file": 7307,
      "hér": 7308,
      "pist": 7309,
      "powers": 7310,
      "vul": 7311,
      "##hood": 7312,
      "##uine": 7313,
      "##agers": 7314,
      "parts": 7315,
      "apporte": 7316,
      "compt": 7317,
      "rare": 7318,
      "##ruption": 7319,
      "presidency": 7320,
      "2006": 7321,
      "évolution": 7322,
      "douce": 7323,
      "sentir": 7324,
      "mariée": 7325,
      "parfaitement": 7326,
      "Excusez": 7327,
      "assassin": 7328,
      "Fort": 7329,
      "Gal": 7330,
      "Lui": 7331,
      "Polly": 7332,
      "Sus": 7333,
      "Wr": 7334,
      "aj": 7335,
      "code": 7336,
      "egg": 7337,
      "ille": 7338,
      "mille": 7339,
      "pig": 7340,
      "signe": 7341,
      "tack": 7342,
      "via": 7343,
      "##éens": 7344,
      "##TE": 7345,
      "##ously": 7346,
      "ing": 7347,
      "tromp": 7348,
      "knowledge": 7349,
      "Leon": 7350,
      "Noël": 7351,
      "cheap": 7352,
      "recently": 7353,
      "Stras": 7354,
      "announ": 7355,
      "dirige": 7356,
      "existing": 7357,
      "priorities": 7358,
      "entreprise": 7359,
      "accepted": 7360,
      "financières": 7361,
      "activities": 7362,
      "Morning": 7363,
      "félicite": 7364,
      "Aucun": 7365,
      "complètement": 7366,
      "Toujours": 7367,
      "vraie": 7368,
      "CO": 7369,
      "Os": 7370,
      "bât": 7371,
      "kick": 7372,
      "##iation": 7373,
      "##rées": 7374,
      "##ga": 7375,
      "##hol": 7376,
      "##lls": 7377,
      "##struct": 7378,
      "design": 7379,
      "auprès": 7380,
      "devient": 7381,
      "spoke": 7382,
      "incident": 7383,
      "besoins": 7384,
      "effects": 7385,
      "meilleurs": 7386,
      "précisément": 7387,
      "presented": 7388,
      "appear": 7389,
      "nationale": 7390,
      "Directive": 7391,
      "Firstly": 7392,
      "ouverture": 7393,
      "Oliv": 7394,
      "Gentle": 7395,
      "criteria": 7396,
      "Cam": 7397,
      "Fra": 7398,
      "Fanny": 7399,
      "Ot": 7400,
      "Pendant": 7401,
      "Terry": 7402,
      "page": 7403,
      "##ba": 7404,
      "thou": 7405,
      "##ores": 7406,
      "determin": 7407,
      "injust": 7408,
      "uncle": 7409,
      "Third": 7410,
      "seek": 7411,
      "anywhere": 7412,
      "Charl": 7413,
      "droite": 7414,
      "Max": 7415,
      "constant": 7416,
      "signed": 7417,
      "provisions": 7418,
      "principal": 7419,
      "tabled": 7420,
      "communauté": 7421,
      "constructive": 7422,
      "analy": 7423,
      "challenge": 7424,
      "tribun": 7425,
      "apporté": 7426,
      "Francisco": 7427,
      "Kyeongseong": 7428,
      "Strasbourg": 7429,
      "Ap": 7430,
      "Mettez": 7431,
      "Win": 7432,
      "ajouter": 7433,
      "pock": 7434,
      "sla": 7435,
      "##cl": 7436,
      "##verty": 7437,
      "##pper": 7438,
      "##ardo": 7439,
      "##anges": 7440,
      "concr": 7441,
      "obten": 7442,
      "Prin": 7443,
      "talks": 7444,
      "poverty": 7445,
      "relatives": 7446,
      "respond": 7447,
      "Toutes": 7448,
      "written": 7449,
      "lots": 7450,
      "judge": 7451,
      "commitment": 7452,
      "football": 7453,
      "pauvreté": 7454,
      "becoming": 7455,
      "quitté": 7456,
      "witness": 7457,
      "dynam": 7458,
      "Four": 7459,
      "Joy": 7460,
      "Orient": 7461,
      "Won": 7462,
      "ayez": 7463,
      "gê": 7464,
      "##uits": 7465,
      "##isant": 7466,
      "revenu": 7467,
      "pression": 7468,
      "##imate": 7469,
      "##ription": 7470,
      "liked": 7471,
      "soin": 7472,
      "lois": 7473,
      "intent": 7474,
      "comporte": 7475,
      "community": 7476,
      "génér": 7477,
      "stopped": 7478,
      "considered": 7479,
      "coucher": 7480,
      "measure": 7481,
      "Spain": 7482,
      "Irish": 7483,
      "financier": 7484,
      "Attention": 7485,
      "##ference": 7486,
      "origine": 7487,
      "Tomorrow": 7488,
      "coûts": 7489,
      "militaire": 7490,
      "Washington": 7491,
      "strateg": 7492,
      "arrêté": 7493,
      "partnership": 7494,
      "Connie": 7495,
      "Central": 7496,
      "ACP": 7497,
      "cheveux": 7498,
      "Aussi": 7499,
      "Bert": 7500,
      "Jones": 7501,
      "Tant": 7502,
      "Tenez": 7503,
      "card": 7504,
      "tight": 7505,
      "zones": 7506,
      "##LE": 7507,
      "##ôme": 7508,
      "##enne": 7509,
      "##ining": 7510,
      "##atri": 7511,
      "deme": 7512,
      "##cemment": 7513,
      "##quée": 7514,
      "medi": 7515,
      "pratiques": 7516,
      "##ria": 7517,
      "staff": 7518,
      "aient": 7519,
      "##oked": 7520,
      "##étaires": 7521,
      "travaillé": 7522,
      "nouvel": 7523,
      "basic": 7524,
      "réformes": 7525,
      "milk": 7526,
      "rentre": 7527,
      "taxes": 7528,
      "Irlande": 7529,
      "brain": 7530,
      "##ilibre": 7531,
      "forever": 7532,
      "hôpital": 7533,
      "pressure": 7534,
      "permettra": 7535,
      "similar": 7536,
      "événements": 7537,
      "Walter": 7538,
      "Most": 7539,
      "Op": 7540,
      "Sit": 7541,
      "ice": 7542,
      "mens": 7543,
      "oh": 7544,
      "élo": 7545,
      "##ailles": 7546,
      "##ued": 7547,
      "##vons": 7548,
      "##ano": 7549,
      "devenu": 7550,
      "##irt": 7551,
      "failed": 7552,
      "pla": 7553,
      "Leave": 7554,
      "cock": 7555,
      "##duction": 7556,
      "diable": 7557,
      "auront": 7558,
      "Alice": 7559,
      "conférence": 7560,
      "refuge": 7561,
      "reviens": 7562,
      "insul": 7563,
      "laws": 7564,
      "absur": 7565,
      "élevé": 7566,
      "acceptable": 7567,
      "récup": 7568,
      "victims": 7569,
      "Malheureusement": 7570,
      "learned": 7571,
      "blessé": 7572,
      "intelligent": 7573,
      "Middle": 7574,
      "Balt": 7575,
      "Dix": 7576,
      "Hur": 7577,
      "Matt": 7578,
      "Oct": 7579,
      "Ver": 7580,
      "earl": 7581,
      "gagne": 7582,
      "rural": 7583,
      "wild": 7584,
      "##rants": 7585,
      "##IT": 7586,
      "##isée": 7587,
      "inutile": 7588,
      "##eds": 7589,
      "plac": 7590,
      "##agner": 7591,
      "excess": 7592,
      "réd": 7593,
      "coh": 7594,
      "upset": 7595,
      "adéqu": 7596,
      "##geant": 7597,
      "Cham": 7598,
      "instance": 7599,
      "arrière": 7600,
      "sociaux": 7601,
      "technique": 7602,
      "followed": 7603,
      "successful": 7604,
      "substances": 7605,
      "Belar": 7606,
      "théâtre": 7607,
      "disparu": 7608,
      "territoire": 7609,
      "mondial": 7610,
      "bureaucrat": 7611,
      "infrastruct": 7612,
      "35": 7613,
      "Cong": 7614,
      "Mo": 7615,
      "Nap": 7616,
      "##isent": 7617,
      "##itaires": 7618,
      "##ller": 7619,
      "inh": 7620,
      "##iron": 7621,
      "##aiser": 7622,
      "##nels": 7623,
      "##ivez": 7624,
      "agent": 7625,
      "##mbour": 7626,
      "entier": 7627,
      "##énar": 7628,
      "Asse": 7629,
      "Maria": 7630,
      "soutiens": 7631,
      "wishes": 7632,
      "rapporteurs": 7633,
      "credit": 7634,
      "Geoff": 7635,
      "portes": 7636,
      "accepté": 7637,
      "efficient": 7638,
      "puisque": 7639,
      "collect": 7640,
      "##stein": 7641,
      "statut": 7642,
      "navire": 7643,
      "regulations": 7644,
      "Palestin": 7645,
      "caractère": 7646,
      "cadeau": 7647,
      "22": 7648,
      "Bank": 7649,
      "Ty": 7650,
      "lines": 7651,
      "river": 7652,
      "##vo": 7653,
      "##form": 7654,
      "##TO": 7655,
      "##rel": 7656,
      "##itarian": 7657,
      "##str": 7658,
      "##oper": 7659,
      "prouver": 7660,
      "compens": 7661,
      "interd": 7662,
      "vieil": 7663,
      "##diers": 7664,
      "sorti": 7665,
      "défis": 7666,
      "budgets": 7667,
      "développer": 7668,
      "bringing": 7669,
      "circonst": 7670,
      "billion": 7671,
      "illég": 7672,
      "official": 7673,
      "compétences": 7674,
      "partenariat": 7675,
      "terminé": 7676,
      "thousands": 7677,
      "Chinese": 7678,
      "agriculteurs": 7679,
      "Joseph": 7680,
      "90": 7681,
      "Cort": 7682,
      "Gab": 7683,
      "aides": 7684,
      "fous": 7685,
      "fid": 7686,
      "host": 7687,
      "##ril": 7688,
      "##vere": 7689,
      "##vered": 7690,
      "##leb": 7691,
      "parc": 7692,
      "prices": 7693,
      "##ada": 7694,
      "intend": 7695,
      "##lare": 7696,
      "confirm": 7697,
      "supporter": 7698,
      "##ugs": 7699,
      "Amster": 7700,
      "voler": 7701,
      "milieu": 7702,
      "votes": 7703,
      "image": 7704,
      "actuel": 7705,
      "slow": 7706,
      "naturellement": 7707,
      "examen": 7708,
      "suspect": 7709,
      "campagne": 7710,
      "Angel": 7711,
      "Rights": 7712,
      "fournir": 7713,
      "##ING": 7714,
      "requirements": 7715,
      "Better": 7716,
      "disappe": 7717,
      "Arrêtez": 7718,
      "enemy": 7719,
      "Belarus": 7720,
      "Amsterdam": 7721,
      "Pense": 7722,
      "Poor": 7723,
      "Sinon": 7724,
      "boute": 7725,
      "cult": 7726,
      "dancing": 7727,
      "fal": 7728,
      "ge": 7729,
      "##cal": 7730,
      "##éter": 7731,
      "##omas": 7732,
      "parles": 7733,
      "plant": 7734,
      "##iency": 7735,
      "asile": 7736,
      "shown": 7737,
      "noble": 7738,
      "crowd": 7739,
      "Six": 7740,
      "maintenir": 7741,
      "acteurs": 7742,
      "scre": 7743,
      "talent": 7744,
      "discus": 7745,
      "2005": 7746,
      "2020": 7747,
      "changements": 7748,
      "rene": 7749,
      "biggest": 7750,
      "madam": 7751,
      "harmonisation": 7752,
      "events": 7753,
      "deliver": 7754,
      "administrative": 7755,
      "succeed": 7756,
      "alcool": 7757,
      "conversation": 7758,
      "##mployment": 7759,
      "Camp": 7760,
      "Rou": 7761,
      "Soyez": 7762,
      "lun": 7763,
      "mange": 7764,
      "ow": 7765,
      "##hai": 7766,
      "##RE": 7767,
      "##onc": 7768,
      "thus": 7769,
      "##rote": 7770,
      "mem": 7771,
      "##ussels": 7772,
      "factor": 7773,
      "partez": 7774,
      "stim": 7775,
      "##iforn": 7776,
      "adress": 7777,
      "accent": 7778,
      "positions": 7779,
      "croit": 7780,
      "##asters": 7781,
      "acting": 7782,
      "##avant": 7783,
      "letters": 7784,
      "incor": 7785,
      "assis": 7786,
      "operation": 7787,
      "##alised": 7788,
      "investissements": 7789,
      "satisfait": 7790,
      "authority": 7791,
      "amélioration": 7792,
      "fella": 7793,
      "Espagne": 7794,
      "Excellence": 7795,
      "cigarette": 7796,
      "maximum": 7797,
      "Shanghai": 7798,
      "item": 7799,
      "trésor": 7800,
      "Eva": 7801,
      "Hor": 7802,
      "Up": 7803,
      "Ze": 7804,
      "##iot": 7805,
      "##itent": 7806,
      "quitte": 7807,
      "##iré": 7808,
      "paroles": 7809,
      "##bler": 7810,
      "fruit": 7811,
      "##venus": 7812,
      "complic": 7813,
      "toucher": 7814,
      "seconde": 7815,
      "##dibil": 7816,
      "transition": 7817,
      "malheure": 7818,
      "Peu": 7819,
      "Brussels": 7820,
      "lawyer": 7821,
      "considérable": 7822,
      "##rasse": 7823,
      "disturb": 7824,
      "considerable": 7825,
      "étranger": 7826,
      "conduct": 7827,
      "introduce": 7828,
      "murderer": 7829,
      "Retour": 7830,
      "heavy": 7831,
      "discussed": 7832,
      "Other": 7833,
      "nerv": 7834,
      "##hin": 7835,
      "##vée": 7836,
      "##esp": 7837,
      "##urance": 7838,
      "nearly": 7839,
      "##ilib": 7840,
      "proof": 7841,
      "stress": 7842,
      "récemment": 7843,
      "Leg": 7844,
      "##acket": 7845,
      "experts": 7846,
      "##izar": 7847,
      "decent": 7848,
      "volont": 7849,
      "Afghan": 7850,
      "causes": 7851,
      "considération": 7852,
      "starting": 7853,
      "différence": 7854,
      "created": 7855,
      "paragraph": 7856,
      "positif": 7857,
      "Broadway": 7858,
      "Both": 7859,
      "Over": 7860,
      "Sand": 7861,
      "Wil": 7862,
      "gé": 7863,
      "merely": 7864,
      "ore": 7865,
      "ratif": 7866,
      "spring": 7867,
      "vérif": 7868,
      "##hold": 7869,
      "##ondu": 7870,
      "##ato": 7871,
      "unacceptable": 7872,
      "jealous": 7873,
      "Thomas": 7874,
      "alarm": 7875,
      "lettres": 7876,
      "prévenir": 7877,
      "regardez": 7878,
      "genuine": 7879,
      "built": 7880,
      "centrale": 7881,
      "différent": 7882,
      "missing": 7883,
      "équilibre": 7884,
      "closely": 7885,
      "defend": 7886,
      "growing": 7887,
      "encourager": 7888,
      "réduction": 7889,
      "attaque": 7890,
      "assurance": 7891,
      "maladie": 7892,
      "réglementation": 7893,
      "réjouis": 7894,
      "réfléchir": 7895,
      "MIle": 7896,
      "Bull": 7897,
      "Fis": 7898,
      "aille": 7899,
      "coute": 7900,
      "cup": 7901,
      "nations": 7902,
      "option": 7903,
      "por": 7904,
      "sounds": 7905,
      "wat": 7906,
      "##ming": 7907,
      "##umb": 7908,
      "unies": 7909,
      "chasse": 7910,
      "impose": 7911,
      "knife": 7912,
      "upstairs": 7913,
      "ravi": 7914,
      "cartes": 7915,
      "ferm": 7916,
      "useful": 7917,
      "espèce": 7918,
      "excuser": 7919,
      "##engen": 7920,
      "contribuer": 7921,
      "Without": 7922,
      "beauté": 7923,
      "Oubl": 7924,
      "conduire": 7925,
      "Somebody": 7926,
      "expecting": 7927,
      "animals": 7928,
      "delay": 7929,
      "statist": 7930,
      "included": 7931,
      "Schengen": 7932,
      "candidats": 7933,
      "##ylum": 7934,
      "settle": 7935,
      "Green": 7936,
      "birth": 7937,
      "Charlotte": 7938,
      "Ec": 7939,
      "Ell": 7940,
      "Old": 7941,
      "bomb": 7942,
      "##gency": 7943,
      "unf": 7944,
      "##aison": 7945,
      "member": 7946,
      "##neur": 7947,
      "celeb": 7948,
      "##osse": 7949,
      "myst": 7950,
      "##ords": 7951,
      "covered": 7952,
      "Inter": 7953,
      "brut": 7954,
      "enth": 7955,
      "closer": 7956,
      "supply": 7957,
      "insuff": 7958,
      "##ribly": 7959,
      "Short": 7960,
      "profond": 7961,
      "futur": 7962,
      "chauss": 7963,
      "barb": 7964,
      "aborder": 7965,
      "caused": 7966,
      "drinking": 7967,
      "slight": 7968,
      "juin": 7969,
      "accepte": 7970,
      "garantie": 7971,
      "lutter": 7972,
      "involve": 7973,
      "bagages": 7974,
      "guns": 7975,
      "dérange": 7976,
      "torture": 7977,
      "##ifiée": 7978,
      "pilot": 7979,
      "asseoir": 7980,
      "indispensable": 7981,
      "Cy": 7982,
      "Cés": 7983,
      "Hard": 7984,
      "Sous": 7985,
      "earn": 7986,
      "piano": 7987,
      "psy": 7988,
      "whe": 7989,
      "##pare": 7990,
      "##zen": 7991,
      "##orie": 7992,
      "##leine": 7993,
      "##icip": 7994,
      "##rop": 7995,
      "##rol": 7996,
      "##ielle": 7997,
      "châ": 7998,
      "chante": 7999,
      "réag": 8000,
      "Law": 8001,
      "##ocol": 8002,
      "rav": 8003,
      "preuves": 8004,
      "##étés": 8005,
      "secteurs": 8006,
      "Anton": 8007,
      "passeng": 8008,
      "insult": 8009,
      "answ": 8010,
      "helped": 8011,
      "sortie": 8012,
      "dispon": 8013,
      "Bruxe": 8014,
      "utilisé": 8015,
      "distance": 8016,
      "levels": 8017,
      "conséquence": 8018,
      "movement": 8019,
      "Capit": 8020,
      "réaliser": 8021,
      "échelle": 8022,
      "ridicule": 8023,
      "ashamed": 8024,
      "Jacques": 8025,
      "convinced": 8026,
      "Dutch": 8027,
      "Gentlemen": 8028,
      "Bruxelles": 8029,
      "ES": 8030,
      "Fu": 8031,
      "Kent": 8032,
      "bath": 8033,
      "jeter": 8034,
      "loss": 8035,
      "wrote": 8036,
      "##iet": 8037,
      "##AS": 8038,
      "thy": 8039,
      "thee": 8040,
      "##stre": 8041,
      "##igher": 8042,
      "##adis": 8043,
      "amuser": 8044,
      "seraient": 8045,
      "trah": 8046,
      "consul": 8047,
      "tells": 8048,
      "speed": 8049,
      "situations": 8050,
      "corner": 8051,
      "désir": 8052,
      "phase": 8053,
      "acheté": 8054,
      "##ology": 8055,
      "swear": 8056,
      "transports": 8057,
      "Irene": 8058,
      "ressort": 8059,
      "treatment": 8060,
      "délég": 8061,
      "tempor": 8062,
      "##ublique": 8063,
      "Californ": 8064,
      "Sometimes": 8065,
      "parlementaire": 8066,
      "perspectives": 8067,
      "##itivité": 8068,
      "nourrit": 8069,
      "britannique": 8070,
      "Mickey": 8071,
      "agréable": 8072,
      "earlier": 8073,
      "nervous": 8074,
      "Balk": 8075,
      "Ev": 8076,
      "Jam": 8077,
      "Sum": 8078,
      "Wald": 8079,
      "warn": 8080,
      "reb": 8081,
      "queen": 8082,
      "tap": 8083,
      "intended": 8084,
      "directeur": 8085,
      "expert": 8086,
      "acteur": 8087,
      "opération": 8088,
      "##manie": 8089,
      "humain": 8090,
      "démar": 8091,
      "papier": 8092,
      "distin": 8093,
      "Trans": 8094,
      "vivant": 8095,
      "civile": 8096,
      "battle": 8097,
      "properly": 8098,
      "sincère": 8099,
      "potential": 8100,
      "alternative": 8101,
      "renew": 8102,
      "Pauvre": 8103,
      "Slo": 8104,
      "avert": 8105,
      "cerve": 8106,
      "fiche": 8107,
      "sor": 8108,
      "sinon": 8109,
      "##har": 8110,
      "##ND": 8111,
      "##reh": 8112,
      "deleg": 8113,
      "##alty": 8114,
      "##road": 8115,
      "##lyn": 8116,
      "##ivre": 8117,
      "loves": 8118,
      "##ifiques": 8119,
      "Européens": 8120,
      "Heure": 8121,
      "contenu": 8122,
      "herself": 8123,
      "interp": 8124,
      "material": 8125,
      "invis": 8126,
      "aimais": 8127,
      "Still": 8128,
      "supported": 8129,
      "##ologique": 8130,
      "reprendre": 8131,
      "mépr": 8132,
      "leading": 8133,
      "1998": 8134,
      "consideration": 8135,
      "atteint": 8136,
      "advance": 8137,
      "possibility": 8138,
      "Directeur": 8139,
      "soldats": 8140,
      "reforms": 8141,
      "technologies": 8142,
      "medic": 8143,
      "automob": 8144,
      "reconnaître": 8145,
      "déteste": 8146,
      "Dou": 8147,
      "Hum": 8148,
      "Ni": 8149,
      "bande": 8150,
      "vig": 8151,
      "##ef": 8152,
      "##the": 8153,
      "##des": 8154,
      "##idable": 8155,
      "##andis": 8156,
      "load": 8157,
      "attach": 8158,
      "vamp": 8159,
      "Ceux": 8160,
      "actes": 8161,
      "demands": 8162,
      "Anne": 8163,
      "espace": 8164,
      "constat": 8165,
      "pension": 8166,
      "humains": 8167,
      "soldiers": 8168,
      "cash": 8169,
      "moments": 8170,
      "cacher": 8171,
      "souhaiterais": 8172,
      "creation": 8173,
      "critique": 8174,
      "Someone": 8175,
      "préfér": 8176,
      "Brown": 8177,
      "déclaré": 8178,
      "Director": 8179,
      "intéressant": 8180,
      "puissent": 8181,
      "applied": 8182,
      "suspic": 8183,
      "viendra": 8184,
      "supplémentaires": 8185,
      "Japan": 8186,
      "rejoindre": 8187,
      "télég": 8188,
      "Burn": 8189,
      "Po": 8190,
      "Were": 8191,
      "dimin": 8192,
      "foi": 8193,
      "pair": 8194,
      "pipe": 8195,
      "riv": 8196,
      "rise": 8197,
      "##wor": 8198,
      "##ômage": 8199,
      "invent": 8200,
      "laid": 8201,
      "unc": 8202,
      "##icide": 8203,
      "forêt": 8204,
      "weap": 8205,
      "##istance": 8206,
      "contente": 8207,
      "intens": 8208,
      "consiste": 8209,
      "entièrement": 8210,
      "goods": 8211,
      "régul": 8212,
      "clever": 8213,
      "responsables": 8214,
      "arranger": 8215,
      "feelings": 8216,
      "planned": 8217,
      "publics": 8218,
      "happening": 8219,
      "engag": 8220,
      "financiers": 8221,
      "raconter": 8222,
      "possibilités": 8223,
      "compétitivité": 8224,
      "marchand": 8225,
      "choisi": 8226,
      "Brad": 8227,
      "##encies": 8228,
      "Inspector": 8229,
      "exigences": 8230,
      "parliamentary": 8231,
      "Street": 8232,
      "intentions": 8233,
      "circonstances": 8234,
      "80": 8235,
      "Sén": 8236,
      "Suis": 8237,
      "higher": 8238,
      "mate": 8239,
      "pray": 8240,
      "##zed": 8241,
      "##itoy": 8242,
      "##uré": 8243,
      "unfortunately": 8244,
      "led": 8245,
      "##illing": 8246,
      "##illard": 8247,
      "forest": 8248,
      "chief": 8249,
      "chômage": 8250,
      "mob": 8251,
      "##riers": 8252,
      "monte": 8253,
      "tabac": 8254,
      "##sif": 8255,
      "cohesion": 8256,
      "Ens": 8257,
      "expressed": 8258,
      "##ips": 8259,
      "invité": 8260,
      "##ilda": 8261,
      "vouliez": 8262,
      "##othy": 8263,
      "débarr": 8264,
      "faisant": 8265,
      "défi": 8266,
      "garçons": 8267,
      "apartment": 8268,
      "charmante": 8269,
      "green": 8270,
      "choisir": 8271,
      "Croat": 8272,
      "Excellency": 8273,
      "spécifique": 8274,
      "ayant": 8275,
      "pétrole": 8276,
      "analyse": 8277,
      "Aw": 8278,
      "Ac": 8279,
      "Aval": 8280,
      "Faut": 8281,
      "Haven": 8282,
      "amp": 8283,
      "lignes": 8284,
      "mi": 8285,
      "rum": 8286,
      "sors": 8287,
      "##aver": 8288,
      "##nold": 8289,
      "##da": 8290,
      "##oncé": 8291,
      "unp": 8292,
      "separ": 8293,
      "asylum": 8294,
      "Thurs": 8295,
      "notice": 8296,
      "sty": 8297,
      "##odies": 8298,
      "loge": 8299,
      "révision": 8300,
      "Uni": 8301,
      "intr": 8302,
      "admit": 8303,
      "##000": 8304,
      "finalement": 8305,
      "repos": 8306,
      "Albert": 8307,
      "passage": 8308,
      "Sheila": 8309,
      "servi": 8310,
      "princesse": 8311,
      "Passez": 8312,
      "renouve": 8313,
      "tourner": 8314,
      "highly": 8315,
      "##ervation": 8316,
      "négl": 8317,
      "appell": 8318,
      "costume": 8319,
      "borders": 8320,
      "coordin": 8321,
      "established": 8322,
      "Royaume": 8323,
      "bottle": 8324,
      "magnifique": 8325,
      "proportion": 8326,
      "surveillance": 8327,
      "exchange": 8328,
      "illegal": 8329,
      ").": 8330,
      "Az": 8331,
      "Cab": 8332,
      "Lat": 8333,
      "Mus": 8334,
      "Ross": 8335,
      "joie": 8336,
      "pity": 8337,
      "##aï": 8338,
      "##mine": 8339,
      "##erved": 8340,
      "beer": 8341,
      "sud": 8342,
      "##llect": 8343,
      "##cilement": 8344,
      "##usty": 8345,
      "manage": 8346,
      "worst": 8347,
      "concert": 8348,
      "reposer": 8349,
      "cesse": 8350,
      "actor": 8351,
      "##aval": 8352,
      "Stan": 8353,
      "Rec": 8354,
      "espagn": 8355,
      "Arden": 8356,
      "193": 8357,
      "extent": 8358,
      "##ignez": 8359,
      "##ologne": 8360,
      "disting": 8361,
      "contribu": 8362,
      "disposition": 8363,
      "fixed": 8364,
      "pictures": 8365,
      "additional": 8366,
      "Daddy": 8367,
      "relevant": 8368,
      "##itiveness": 8369,
      "Aucune": 8370,
      "spécifiques": 8371,
      "espérons": 8372,
      "medium": 8373,
      "70": 8374,
      "Cub": 8375,
      "balle": 8376,
      "mun": 8377,
      "nord": 8378,
      "pitié": 8379,
      "vide": 8380,
      "##worth": 8381,
      "##ging": 8382,
      "##II": 8383,
      "rej": 8384,
      "wearing": 8385,
      "##ardin": 8386,
      "savent": 8387,
      "mai": 8388,
      "implic": 8389,
      "appoint": 8390,
      "devais": 8391,
      "adresse": 8392,
      "conclure": 8393,
      "bridge": 8394,
      "auraient": 8395,
      "obtain": 8396,
      "affir": 8397,
      "infl": 8398,
      "malgré": 8399,
      "producteurs": 8400,
      "montré": 8401,
      "milliards": 8402,
      "désolée": 8403,
      "sufficient": 8404,
      "setting": 8405,
      "escape": 8406,
      "activité": 8407,
      "worrying": 8408,
      "Henri": 8409,
      "##jection": 8410,
      "réalisé": 8411,
      "technology": 8412,
      "amoureuse": 8413,
      "Beaucoup": 8414,
      "obstacles": 8415,
      "Sadie": 8416,
      "newspaper": 8417,
      "Blake": 8418,
      "Avalanche": 8419,
      "Bor": 8420,
      "North": 8421,
      "OM": 8422,
      "Ra": 8423,
      "Yet": 8424,
      "fas": 8425,
      "fired": 8426,
      "jo": 8427,
      "lend": 8428,
      "sage": 8429,
      "tor": 8430,
      "##CE": 8431,
      "##ito": 8432,
      "##stone": 8433,
      "##alon": 8434,
      "##eday": 8435,
      "sectors": 8436,
      "##agher": 8437,
      "external": 8438,
      "arch": 8439,
      "although": 8440,
      "traî": 8441,
      "manquer": 8442,
      "Party": 8443,
      "obt": 8444,
      "scale": 8445,
      "opér": 8446,
      "malin": 8447,
      "gentille": 8448,
      "bucks": 8449,
      "attendent": 8450,
      "steal": 8451,
      "killing": 8452,
      "India": 8453,
      "easily": 8454,
      "prendra": 8455,
      "ambition": 8456,
      "status": 8457,
      "fonctionne": 8458,
      "##jected": 8459,
      "études": 8460,
      "Accord": 8461,
      "suddenly": 8462,
      "ministres": 8463,
      "Gallagher": 8464,
      "Egypt": 8465,
      "wagon": 8466,
      "23": 8467,
      "Cher": 8468,
      "cultural": 8469,
      "dames": 8470,
      "gri": 8471,
      "mouve": 8472,
      "##oot": 8473,
      "##asin": 8474,
      "##sey": 8475,
      "##idel": 8476,
      "##oler": 8477,
      "##agine": 8478,
      "Their": 8479,
      "avancer": 8480,
      "maid": 8481,
      "disch": 8482,
      "brings": 8483,
      "##écu": 8484,
      "block": 8485,
      "sometime": 8486,
      "Franç": 8487,
      "boî": 8488,
      "débats": 8489,
      "approved": 8490,
      "responsabil": 8491,
      "##overed": 8492,
      "developed": 8493,
      "patients": 8494,
      "graves": 8495,
      "histoires": 8496,
      "staying": 8497,
      "dealing": 8498,
      "##lett": 8499,
      "Anyway": 8500,
      "satisfied": 8501,
      "descend": 8502,
      "implemented": 8503,
      "climatique": 8504,
      "anglais": 8505,
      "enterpr": 8506,
      "suffisamment": 8507,
      "summer": 8508,
      "complain": 8509,
      "reconnaissance": 8510,
      "ennemi": 8511,
      "capacity": 8512,
      "Eg": 8513,
      "Eve": 8514,
      "bière": 8515,
      "ep": 8516,
      "fulf": 8517,
      "jure": 8518,
      "lanc": 8519,
      "nine": 8520,
      "émissions": 8521,
      "##tte": 8522,
      "##jud": 8523,
      "##IE": 8524,
      "labor": 8525,
      "enable": 8526,
      "rever": 8527,
      "##ramme": 8528,
      "##illed": 8529,
      "##igé": 8530,
      "lif": 8531,
      "myster": 8532,
      "mail": 8533,
      "Europeans": 8534,
      "contain": 8535,
      "property": 8536,
      "##ouvre": 8537,
      "reporter": 8538,
      "##encer": 8539,
      "Allen": 8540,
      "function": 8541,
      "profiter": 8542,
      "philos": 8543,
      "attendais": 8544,
      "attendez": 8545,
      "réfug": 8546,
      "Exp": 8547,
      "introduced": 8548,
      "competitiveness": 8549,
      "frappé": 8550,
      "Moreover": 8551,
      "acquis": 8552,
      "convaincu": 8553,
      "failure": 8554,
      "quotas": 8555,
      "connection": 8556,
      "Communauté": 8557,
      "ouverte": 8558,
      "restaurant": 8559,
      "César": 8560,
      "29": 8561,
      "Cr": 8562,
      "Hick": 8563,
      "Norm": 8564,
      "cod": 8565,
      "dic": 8566,
      "fif": 8567,
      "gh": 8568,
      "ray": 8569,
      "tree": 8570,
      "##cles": 8571,
      "##kin": 8572,
      "##isc": 8573,
      "##iced": 8574,
      "##ottes": 8575,
      "conven": 8576,
      "comte": 8577,
      "facilement": 8578,
      "##olen": 8579,
      "search": 8580,
      "pourrions": 8581,
      "disait": 8582,
      "##lax": 8583,
      "diver": 8584,
      "attirer": 8585,
      "##abeth": 8586,
      "maint": 8587,
      "empty": 8588,
      "##ological": 8589,
      "engine": 8590,
      "badly": 8591,
      "articles": 8592,
      "rentré": 8593,
      "singing": 8594,
      "##bury": 8595,
      "conflit": 8596,
      "Serb": 8597,
      "bénéf": 8598,
      "constituent": 8599,
      "optim": 8600,
      "uniform": 8601,
      "inspecteur": 8602,
      "Premièrement": 8603,
      "Indeed": 8604,
      "Brandon": 8605,
      "Suppose": 8606,
      "tribunal": 8607,
      "\"\"": 8608,
      "Iv": 8609,
      "Sois": 8610,
      "YOU": 8611,
      "lourd": 8612,
      "noise": 8613,
      "##nés": 8614,
      "##ket": 8615,
      "##erence": 8616,
      "##ester": 8617,
      "##lley": 8618,
      "plate": 8619,
      "aspir": 8620,
      "mode": 8621,
      "notes": 8622,
      "stable": 8623,
      "##érir": 8624,
      "directement": 8625,
      "##onnée": 8626,
      "classe": 8627,
      "Although": 8628,
      "affairs": 8629,
      "produce": 8630,
      "humaine": 8631,
      "carefully": 8632,
      "smoke": 8633,
      "friendly": 8634,
      "adoptée": 8635,
      "difficulties": 8636,
      "closed": 8637,
      "angry": 8638,
      "coût": 8639,
      "Represent": 8640,
      "lieutenant": 8641,
      "néanmoins": 8642,
      "religion": 8643,
      "cigarettes": 8644,
      "suffering": 8645,
      "consultation": 8646,
      "scandale": 8647,
      "Barbara": 8648,
      "Hurry": 8649,
      "responsabilités": 8650,
      "Cin": 8651,
      "Pret": 8652,
      "PPE": 8653,
      "Sally": 8654,
      "ade": 8655,
      "pill": 8656,
      "sand": 8657,
      "sides": 8658,
      "##iqu": 8659,
      "##oted": 8660,
      "##bal": 8661,
      "##yons": 8662,
      "##LL": 8663,
      "##stood": 8664,
      "##roc": 8665,
      "##rov": 8666,
      "enver": 8667,
      "belles": 8668,
      "dév": 8669,
      "shad": 8670,
      "##onge": 8671,
      "manner": 8672,
      "Park": 8673,
      "Chand": 8674,
      "conciliation": 8675,
      "regime": 8676,
      "guère": 8677,
      "##avi": 8678,
      "Dev": 8679,
      "invitation": 8680,
      "poids": 8681,
      "printemps": 8682,
      "finding": 8683,
      "depend": 8684,
      "dram": 8685,
      "viande": 8686,
      "budgetary": 8687,
      "apprend": 8688,
      "delighted": 8689,
      "cabin": 8690,
      "applies": 8691,
      "media": 8692,
      "détails": 8693,
      "admir": 8694,
      "pareil": 8695,
      "lesquels": 8696,
      "affected": 8697,
      "secrétaire": 8698,
      "walking": 8699,
      "couteau": 8700,
      "Er": 8701,
      "Hank": 8702,
      "Moll": 8703,
      "Ned": 8704,
      "National": 8705,
      "Ses": 8706,
      "Sung": 8707,
      "cul": 8708,
      "dying": 8709,
      "finger": 8710,
      "joke": 8711,
      "km": 8712,
      "##ering": 8713,
      "shame": 8714,
      "##endrez": 8715,
      "##rupt": 8716,
      "personn": 8717,
      "produced": 8718,
      "réserve": 8719,
      "tombé": 8720,
      "##aliser": 8721,
      "Justice": 8722,
      "coups": 8723,
      "##ologie": 8724,
      "procure": 8725,
      "habite": 8726,
      "views": 8727,
      "reasonable": 8728,
      "sache": 8729,
      "lights": 8730,
      "directly": 8731,
      "scientifique": 8732,
      "strengthen": 8733,
      "témo": 8734,
      "cuisine": 8735,
      "manifest": 8736,
      "nucléaire": 8737,
      "assessment": 8738,
      "chauffeur": 8739,
      "Afghanistan": 8740,
      "Ensuite": 8741,
      "Né": 8742,
      "Occ": 8743,
      "Vir": 8744,
      "bri": 8745,
      "cô": 8746,
      "##érez": 8747,
      "##pa": 8748,
      "##vey": 8749,
      "##otta": 8750,
      "beaux": 8751,
      "##quently": 8752,
      "neither": 8753,
      "##illir": 8754,
      "asleep": 8755,
      "##cies": 8756,
      "trouvez": 8757,
      "soft": 8758,
      "##arde": 8759,
      "##ocking": 8760,
      "perp": 8761,
      "terres": 8762,
      "Nove": 8763,
      "Dear": 8764,
      "informed": 8765,
      "twice": 8766,
      "Montre": 8767,
      "Atlant": 8768,
      "mighty": 8769,
      "sentence": 8770,
      "principaux": 8771,
      "developments": 8772,
      "réflex": 8773,
      "sooner": 8774,
      "##ématique": 8775,
      "relationship": 8776,
      "favorable": 8777,
      "participer": 8778,
      "pièces": 8779,
      "fellas": 8780,
      "engagements": 8781,
      "attempt": 8782,
      "Peggy": 8783,
      "Balkans": 8784,
      "1er": 8785,
      "Hotel": 8786,
      "Time": 8787,
      "Voyez": 8788,
      "cé": 8789,
      "lè": 8790,
      "naturally": 8791,
      "rose": 8792,
      "signer": 8793,
      "##iée": 8794,
      "##mon": 8795,
      "##father": 8796,
      "##iny": 8797,
      "##etary": 8798,
      "anx": 8799,
      "##roso": 8800,
      "parv": 8801,
      "pourrai": 8802,
      "plat": 8803,
      "Young": 8804,
      "##anged": 8805,
      "commerci": 8806,
      "attrib": 8807,
      "cruel": 8808,
      "terribly": 8809,
      "##cker": 8810,
      "écl": 8811,
      "##dible": 8812,
      "revêt": 8813,
      "comprenez": 8814,
      "Belle": 8815,
      "humble": 8816,
      "meaning": 8817,
      "Améric": 8818,
      "faisais": 8819,
      "famous": 8820,
      "##laration": 8821,
      "horiz": 8822,
      "appeal": 8823,
      "totally": 8824,
      "##stead": 8825,
      "autorité": 8826,
      "defence": 8827,
      "equality": 8828,
      "officer": 8829,
      "méthod": 8830,
      "regular": 8831,
      "reference": 8832,
      "Republic": 8833,
      "reduce": 8834,
      "bottom": 8835,
      "##uxembour": 8836,
      "broadcast": 8837,
      "performance": 8838,
      "\"...": 8839,
      "26": 8840,
      "Bart": 8841,
      "Send": 8842,
      "fâ": 8843,
      "von": 8844,
      "##lines": 8845,
      "##ya": 8846,
      "##atures": 8847,
      "deg": 8848,
      "##ston": 8849,
      "reject": 8850,
      "##chent": 8851,
      "storm": 8852,
      "##acte": 8853,
      "étro": 8854,
      "##érité": 8855,
      "coal": 8856,
      "Chérie": 8857,
      "consent": 8858,
      "##liqué": 8859,
      "accorder": 8860,
      "presence": 8861,
      "stands": 8862,
      "règle": 8863,
      "rapid": 8864,
      "arrivera": 8865,
      "fonctionnement": 8866,
      "arguments": 8867,
      "Dracul": 8868,
      "appreciate": 8869,
      "murdered": 8870,
      "cockta": 8871,
      "75": 8872,
      "Honey": 8873,
      "Ies": 8874,
      "Sar": 8875,
      "sain": 8876,
      "sales": 8877,
      "vise": 8878,
      "##nant": 8879,
      "##lise": 8880,
      "##inn": 8881,
      "##ints": 8882,
      "##atan": 8883,
      "inacceptable": 8884,
      "##quate": 8885,
      "meat": 8886,
      "proven": 8887,
      "unemployment": 8888,
      "stric": 8889,
      "##ular": 8890,
      "god": 8891,
      "alloc": 8892,
      "Head": 8893,
      "commis": 8894,
      "##abb": 8895,
      "interdiction": 8896,
      "Celle": 8897,
      "soumis": 8898,
      "Alban": 8899,
      "invités": 8900,
      "possibly": 8901,
      "##mann": 8902,
      "2002": 8903,
      "désesp": 8904,
      "former": 8905,
      "formidable": 8906,
      "restez": 8907,
      "investissement": 8908,
      "bouche": 8909,
      "conduite": 8910,
      "Chris": 8911,
      "descendre": 8912,
      "communautaires": 8913,
      "appartement": 8914,
      "ramener": 8915,
      "##umph": 8916,
      "alimentaire": 8917,
      "élimin": 8918,
      "Holmes": 8919,
      "ridicul": 8920,
      "enlever": 8921,
      "fiancée": 8922,
      "poison": 8923,
      "implique": 8924,
      "Savez": 8925,
      "Dracula": 8926,
      "Mam": 8927,
      "RE": 8928,
      "Rand": 8929,
      "bodies": 8930,
      "gain": 8931,
      "gall": 8932,
      "lou": 8933,
      "odd": 8934,
      "##ports": 8935,
      "##essed": 8936,
      "##anted": 8937,
      "##rete": 8938,
      "rede": 8939,
      "##hear": 8940,
      "desire": 8941,
      "proche": 8942,
      "sugar": 8943,
      "stuck": 8944,
      "##estine": 8945,
      "alt": 8946,
      "track": 8947,
      "Chief": 8948,
      "offered": 8949,
      "expend": 8950,
      "Quelles": 8951,
      "découvert": 8952,
      "pleurer": 8953,
      "inviter": 8954,
      "relating": 8955,
      "insister": 8956,
      "engaged": 8957,
      "portée": 8958,
      "techniques": 8959,
      "leader": 8960,
      "beauty": 8961,
      "personally": 8962,
      "intellect": 8963,
      "remarques": 8964,
      "apart": 8965,
      "téléph": 8966,
      "crying": 8967,
      "bénéficier": 8968,
      "Environ": 8969,
      "permanent": 8970,
      "Iraq": 8971,
      "strugg": 8972,
      "Williams": 8973,
      "nourriture": 8974,
      "According": 8975,
      "Apr": 8976,
      "Eli": 8977,
      "Gene": 8978,
      "Ky": 8979,
      "Pizar": 8980,
      "Squ": 8981,
      "Wall": 8982,
      "Women": 8983,
      "dommage": 8984,
      "gagn": 8985,
      "ports": 8986,
      "##heart": 8987,
      "comité": 8988,
      "##kel": 8989,
      "truly": 8990,
      "##essions": 8991,
      "répar": 8992,
      "frères": 8993,
      "cook": 8994,
      "entière": 8995,
      "Pourtant": 8996,
      "souc": 8997,
      "demandes": 8998,
      "##asses": 8999,
      "feriez": 9000,
      "##édie": 9001,
      "débrou": 9002,
      "helping": 9003,
      "##ateral": 9004,
      "paying": 9005,
      "voyons": 9006,
      "donnera": 9007,
      "frontière": 9008,
      "contrary": 9009,
      "examine": 9010,
      "donnez": 9011,
      "easier": 9012,
      "figures": 9013,
      "effectively": 9014,
      "peuples": 9015,
      "méth": 9016,
      "fondamental": 9017,
      "ancien": 9018,
      "negative": 9019,
      "monitoring": 9020,
      "rotten": 9021,
      "Joyce": 9022,
      "réfugiés": 9023,
      "45": 9024,
      "Hong": 9025,
      "Jer": 9026,
      "Sl": 9027,
      "cars": 9028,
      "eating": 9029,
      "poche": 9030,
      "sin": 9031,
      "##bel": 9032,
      "##llie": 9033,
      "##ications": 9034,
      "comments": 9035,
      "forms": 9036,
      "facing": 9037,
      "##agnes": 9038,
      "troupe": 9039,
      "amaz": 9040,
      "usual": 9041,
      "auxque": 9042,
      "##énom": 9043,
      "conference": 9044,
      "empr": 9045,
      "##usses": 9046,
      "savait": 9047,
      "répéter": 9048,
      "voudrait": 9049,
      "extension": 9050,
      "excuses": 9051,
      "humanitarian": 9052,
      "understanding": 9053,
      "opened": 9054,
      "citizen": 9055,
      "conduit": 9056,
      "escal": 9057,
      "##iliar": 9058,
      "assistant": 9059,
      "grosse": 9060,
      "juridiques": 9061,
      "vacances": 9062,
      "lesquelles": 9063,
      "Scotland": 9064,
      "elements": 9065,
      "honourable": 9066,
      "enseigne": 9067,
      "precisely": 9068,
      "siècle": 9069,
      "psych": 9070,
      "Representative": 9071,
      "Cas": 9072,
      "Coll": 9073,
      "Nav": 9074,
      "Watch": 9075,
      "dressed": 9076,
      "lt": 9077,
      "racket": 9078,
      "vari": 9079,
      "vôtre": 9080,
      "wake": 9081,
      "##time": 9082,
      "##enstein": 9083,
      "leaves": 9084,
      "enorm": 9085,
      "forced": 9086,
      "##cha": 9087,
      "seat": 9088,
      "chou": 9089,
      "chale": 9090,
      "moved": 9091,
      "peau": 9092,
      "Whatever": 9093,
      "révé": 9094,
      "rightly": 9095,
      "minister": 9096,
      "encontre": 9097,
      "demandez": 9098,
      "venus": 9099,
      "depends": 9100,
      "provision": 9101,
      "explan": 9102,
      "procéder": 9103,
      "niveaux": 9104,
      "1997": 9105,
      "150": 9106,
      "appelez": 9107,
      "sauve": 9108,
      "occasions": 9109,
      "effectivement": 9110,
      "middle": 9111,
      "Belg": 9112,
      "Trop": 9113,
      "multip": 9114,
      "merveilleuse": 9115,
      "summit": 9116,
      "Israël": 9117,
      "exploitation": 9118,
      "strike": 9119,
      "Internet": 9120,
      "Empire": 9121,
      "propriété": 9122,
      "obviously": 9123,
      "Mosc": 9124,
      "regrettable": 9125,
      "reconstruction": 9126,
      "Writer": 9127,
      "Fla": 9128,
      "Marth": 9129,
      "Mason": 9130,
      "Nort": 9131,
      "Rita": 9132,
      "bow": 9133,
      "bain": 9134,
      "baiser": 9135,
      "cot": 9136,
      "emissions": 9137,
      "lâ": 9138,
      "vingt": 9139,
      "##écile": 9140,
      "##inent": 9141,
      "##aissez": 9142,
      "began": 9143,
      "##quis": 9144,
      "conj": 9145,
      "##ility": 9146,
      "##chée": 9147,
      "##ppe": 9148,
      "##ciale": 9149,
      "verra": 9150,
      "##reement": 9151,
      "spo": 9152,
      "retirer": 9153,
      "confident": 9154,
      "refusé": 9155,
      "produire": 9156,
      "##actions": 9157,
      "Présidence": 9158,
      "excited": 9159,
      "engager": 9160,
      "garden": 9161,
      "##icians": 9162,
      "habitu": 9163,
      "salue": 9164,
      "contribute": 9165,
      "citoyen": 9166,
      "collective": 9167,
      "##épare": 9168,
      "billets": 9169,
      "remarque": 9170,
      "campaign": 9171,
      "abandonner": 9172,
      "association": 9173,
      "Judy": 9174,
      "analysis": 9175,
      "smell": 9176,
      "expenditure": 9177,
      "Had": 9178,
      "Moy": 9179,
      "Rad": 9180,
      "ours": 9181,
      "pus": 9182,
      "##sh": 9183,
      "##rue": 9184,
      "##here": 9185,
      "##die": 9186,
      "##vier": 9187,
      "##isés": 9188,
      "stade": 9189,
      "##acé": 9190,
      "abatt": 9191,
      "##ensions": 9192,
      "Parker": 9193,
      "verdict": 9194,
      "Church": 9195,
      "interdit": 9196,
      "repose": 9197,
      "##ober": 9198,
      "Always": 9199,
      "affirm": 9200,
      "supper": 9201,
      "March": 9202,
      "restent": 9203,
      "désire": 9204,
      "moral": 9205,
      "sociétés": 9206,
      "facts": 9207,
      "attendons": 9208,
      "added": 9209,
      "sociales": 9210,
      "mél": 9211,
      "charges": 9212,
      "disposer": 9213,
      "imposer": 9214,
      "advantage": 9215,
      "divor": 9216,
      "##luded": 9217,
      "satisfaction": 9218,
      "bijou": 9219,
      "##ufact": 9220,
      "charmant": 9221,
      "coûte": 9222,
      "Suède": 9223,
      "Davis": 9224,
      "picked": 9225,
      "ratification": 9226,
      "benefits": 9227,
      "Madeleine": 9228,
      "candidate": 9229,
      "prosp": 9230,
      "américain": 9231,
      "Sweden": 9232,
      "médias": 9233,
      "definitely": 9234,
      "November": 9235,
      "Cur": 9236,
      "Gun": 9237,
      "Hug": 9238,
      "Hung": 9239,
      "OF": 9240,
      "Rusty": 9241,
      "Tib": 9242,
      "##LD": 9243,
      "##isode": 9244,
      "##itant": 9245,
      "##alités": 9246,
      "##irait": 9247,
      "ethn": 9248,
      "conce": 9249,
      "forc": 9250,
      "##ueux": 9251,
      "soins": 9252,
      "##ailed": 9253,
      "Parfois": 9254,
      "devront": 9255,
      "repas": 9256,
      "passion": 9257,
      "promot": 9258,
      "particulière": 9259,
      "drawn": 9260,
      "named": 9261,
      "planning": 9262,
      "limited": 9263,
      "tenue": 9264,
      "valu": 9265,
      "sending": 9266,
      "équip": 9267,
      "ambass": 9268,
      "fellows": 9269,
      "déclarations": 9270,
      "exercise": 9271,
[...]
